{
  "version": "1.0",
  "truncation": null,
  "padding": null,
  "added_tokens": [
    {
      "id": 0,
      "content": "<pad>",
      "single_word": false,
      "lstrip": false,
      "rstrip": false,
      "normalized": false,
      "special": true
    },
    {
      "id": 1,
      "content": "<unk>",
      "single_word": false,
      "lstrip": false,
      "rstrip": false,
      "normalized": false,
      "special": true
    },
    {
      "id": 2,
      "content": "<sos>",
      "single_word": false,
      "lstrip": false,
      "rstrip": false,
      "normalized": false,
      "special": true
    },
    {
      "id": 3,
      "content": "<eos>",
      "single_word": false,
      "lstrip": false,
      "rstrip": false,
      "normalized": false,
      "special": true
    },
    {
      "id": 4,
      "content": "<cursor>",
      "single_word": false,
      "lstrip": false,
      "rstrip": false,
      "normalized": false,
      "special": true
    },
    {
      "id": 1720,
      "content": "super",
      "single_word": false,
      "lstrip": false,
      "rstrip": false,
      "normalized": true,
      "special": false
    },
    {
      "id": 1721,
      "content": "import",
      "single_word": false,
      "lstrip": false,
      "rstrip": false,
      "normalized": true,
      "special": false
    },
    {
      "id": 1722,
      "content": "pub",
      "single_word": false,
      "lstrip": false,
      "rstrip": false,
      "normalized": true,
      "special": false
    },
    {
      "id": 1723,
      "content": "let",
      "single_word": false,
      "lstrip": false,
      "rstrip": false,
      "normalized": true,
      "special": false
    },
    {
      "id": 1724,
      "content": "type_of",
      "single_word": false,
      "lstrip": false,
      "rstrip": false,
      "normalized": true,
      "special": false
    },
    {
      "id": 1725,
      "content": "is_nil",
      "single_word": false,
      "lstrip": false,
      "rstrip": false,
      "normalized": true,
      "special": false
    },
    {
      "id": 1726,
      "content": "is_string",
      "single_word": false,
      "lstrip": false,
      "rstrip": false,
      "normalized": true,
      "special": false
    },
    {
      "id": 1727,
      "content": "is_number",
      "single_word": false,
      "lstrip": false,
      "rstrip": false,
      "normalized": true,
      "special": false
    },
    {
      "id": 1728,
      "content": "is_bool",
      "single_word": false,
      "lstrip": false,
      "rstrip": false,
      "normalized": true,
      "special": false
    },
    {
      "id": 1729,
      "content": "is_int",
      "single_word": false,
      "lstrip": false,
      "rstrip": false,
      "normalized": true,
      "special": false
    },
    {
      "id": 1730,
      "content": "printf",
      "single_word": false,
      "lstrip": false,
      "rstrip": false,
      "normalized": true,
      "special": false
    },
    {
      "id": 1731,
      "content": "input",
      "single_word": false,
      "lstrip": false,
      "rstrip": false,
      "normalized": true,
      "special": false
    },
    {
      "id": 1732,
      "content": "now_ms",
      "single_word": false,
      "lstrip": false,
      "rstrip": false,
      "normalized": true,
      "special": false
    },
    {
      "id": 1733,
      "content": "format",
      "single_word": false,
      "lstrip": false,
      "rstrip": false,
      "normalized": true,
      "special": false
    },
    {
      "id": 1734,
      "content": "exit",
      "single_word": false,
      "lstrip": false,
      "rstrip": false,
      "normalized": true,
      "special": false
    },
    {
      "id": 1735,
      "content": "assert",
      "single_word": false,
      "lstrip": false,
      "rstrip": false,
      "normalized": true,
      "special": false
    }
  ],
  "normalizer": null,
  "pre_tokenizer": {
    "type": "Sequence",
    "pretokenizers": [
      {
        "type": "Whitespace"
      },
      {
        "type": "Punctuation",
        "behavior": "Isolated"
      }
    ]
  },
  "post_processor": null,
  "decoder": null,
  "model": {
    "type": "BPE",
    "dropout": null,
    "unk_token": "<unk>",
    "continuing_subword_prefix": null,
    "end_of_word_suffix": null,
    "fuse_unk": false,
    "byte_fallback": false,
    "ignore_merges": false,
    "vocab": {
      "<pad>": 0,
      "<unk>": 1,
      "<sos>": 2,
      "<eos>": 3,
      "<cursor>": 4,
      "!": 5,
      "\"": 6,
      "&": 7,
      "'": 8,
      "(": 9,
      ")": 10,
      "*": 11,
      "+": 12,
      ",": 13,
      "-": 14,
      ".": 15,
      "/": 16,
      "0": 17,
      "1": 18,
      "2": 19,
      "3": 20,
      "4": 21,
      "5": 22,
      "6": 23,
      "7": 24,
      "8": 25,
      "9": 26,
      ":": 27,
      ";": 28,
      "<": 29,
      "=": 30,
      ">": 31,
      "?": 32,
      "A": 33,
      "B": 34,
      "C": 35,
      "D": 36,
      "E": 37,
      "F": 38,
      "G": 39,
      "H": 40,
      "I": 41,
      "J": 42,
      "K": 43,
      "L": 44,
      "M": 45,
      "N": 46,
      "O": 47,
      "P": 48,
      "R": 49,
      "S": 50,
      "T": 51,
      "U": 52,
      "V": 53,
      "W": 54,
      "Y": 55,
      "Z": 56,
      "[": 57,
      "\\": 58,
      "]": 59,
      "_": 60,
      "a": 61,
      "b": 62,
      "c": 63,
      "d": 64,
      "e": 65,
      "f": 66,
      "g": 67,
      "h": 68,
      "i": 69,
      "j": 70,
      "k": 71,
      "l": 72,
      "m": 73,
      "n": 74,
      "o": 75,
      "p": 76,
      "q": 77,
      "r": 78,
      "s": 79,
      "t": 80,
      "u": 81,
      "v": 82,
      "w": 83,
      "x": 84,
      "y": 85,
      "z": 86,
      "{": 87,
      "}": 88,
      "→": 89,
      "va": 90,
      "in": 91,
      "var": 92,
      "pr": 93,
      "int": 94,
      "print": 95,
      "if": 96,
      "ln": 97,
      "println": 98,
      "re": 99,
      "il": 100,
      "se": 101,
      "is": 102,
      "lse": 103,
      "nil": 104,
      "tr": 105,
      "it": 106,
      "en": 107,
      "ue": 108,
      "ac": 109,
      "de": 110,
      "true": 111,
      "su": 112,
      "no": 113,
      "fa": 114,
      "false": 115,
      "ta": 116,
      "le": 117,
      "ra": 118,
      "val": 119,
      "te": 120,
      "fo": 121,
      "ma": 122,
      "ol": 123,
      "or": 124,
      "else": 125,
      "el": 126,
      "un": 127,
      "co": 128,
      "th": 129,
      "pe": 130,
      "ity": 131,
      "an": 132,
      "me": 133,
      "of": 134,
      "not": 135,
      "wh": 136,
      "ile": 137,
      "while": 138,
      "ing": 139,
      "str": 140,
      "ge": 141,
      "ach": 142,
      "reach": 143,
      "foreach": 144,
      "ble": 145,
      "es": 146,
      "min": 147,
      "inde": 148,
      "tu": 149,
      "po": 150,
      "do": 151,
      "now": 152,
      "max": 153,
      "fi": 154,
      "len": 155,
      "ig": 156,
      "ht": 157,
      "eig": 158,
      "eight": 159,
      "ap": 160,
      "sta": 161,
      "id": 162,
      "pos": 163,
      "vel": 164,
      "pro": 165,
      "sum": 166,
      "rea": 167,
      "ty": 168,
      "type": 169,
      "ke": 170,
      "rt": 171,
      "vol": 172,
      "end": 173,
      "ti": 174,
      "to": 175,
      "age": 176,
      "bo": 177,
      "bool": 178,
      "ve": 179,
      "start": 180,
      "ran": 181,
      "ab": 182,
      "ang": 183,
      "set": 184,
      "ess": 185,
      "cess": 186,
      "fset": 187,
      "offset": 188,
      "rank": 189,
      "ccess": 190,
      "success": 191,
      "rn": 192,
      "em": 193,
      "lt": 194,
      "sult": 195,
      "item": 196,
      "result": 197,
      "li": 198,
      "10": 199,
      "mit": 200,
      "limit": 201,
      "city": 202,
      "cap": 203,
      "acity": 204,
      "capacity": 205,
      "ze": 206,
      "height": 207,
      "ne": 208,
      "index": 209,
      "ste": 210,
      "ize": 211,
      "step": 212,
      "done": 213,
      "size": 214,
      "ms": 215,
      "wid": 216,
      "width": 217,
      "tal": 218,
      "and": 219,
      "total": 220,
      "ok": 221,
      "level": 222,
      "lo": 223,
      "iff": 224,
      "diff": 225,
      "ct": 226,
      "rema": 227,
      "inder": 228,
      "remainder": 229,
      "sco": 230,
      "score": 231,
      "coun": 232,
      "du": 233,
      "duct": 234,
      "na": 235,
      "product": 236,
      "count": 237,
      "name": 238,
      "as": 239,
      "pth": 240,
      "depth": 241,
      "und": 242,
      "key": 243,
      "ut": 244,
      "pi": 245,
      "uble": 246,
      "double": 247,
      "di": 248,
      "ba": 249,
      "fix": 250,
      "acc": 251,
      "us": 252,
      "rate": 253,
      "abs": 254,
      "den": 255,
      "sity": 256,
      "density": 257,
      "radi": 258,
      "radius": 259,
      "accel": 260,
      "wor": 261,
      "nit": 262,
      "gnit": 263,
      "ude": 264,
      "magnit": 265,
      "magnitude": 266,
      "act": 267,
      "sh": 268,
      "ev": 269,
      "even": 270,
      "angle": 271,
      "area": 272,
      "valid": 273,
      "sure": 274,
      "pres": 275,
      "pressure": 276,
      "tage": 277,
      "voltage": 278,
      "resh": 279,
      "old": 280,
      "thresh": 281,
      "threshold": 282,
      "fact": 283,
      "factor": 284,
      "pera": 285,
      "tem": 286,
      "weight": 287,
      "ture": 288,
      "run": 289,
      "perature": 290,
      "temperature": 291,
      "dy": 292,
      "ready": 293,
      "con": 294,
      "found": 295,
      "av": 296,
      "avg": 297,
      "tio": 298,
      "has": 299,
      "turn": 300,
      "return": 301,
      "ning": 302,
      "running": 303,
      "req": 304,
      "appro": 305,
      "approx": 306,
      "freq": 307,
      "string": 308,
      "fun": 309,
      "ent": 310,
      "ume": 311,
      "volume": 312,
      "ocity": 313,
      "velocity": 314,
      "rc": 315,
      "ratio": 316,
      "perc": 317,
      "percent": 318,
      "ec": 319,
      "ch": 320,
      "la": 321,
      "ist": 322,
      "ns": 323,
      "dist": 324,
      "tive": 325,
      "chec": 326,
      "active": 327,
      "able": 328,
      "ible": 329,
      "vis": 330,
      "visible": 331,
      "enable": 332,
      "enabled": 333,
      "ked": 334,
      "checked": 335,
      "iti": 336,
      "positi": 337,
      "positive": 338,
      "fla": 339,
      "flag": 340,
      "rme": 341,
      "firme": 342,
      "confirme": 343,
      "confirmed": 344,
      "ro": 345,
      "ata": 346,
      "ting": 347,
      "mean": 348,
      "value": 349,
      "pa": 350,
      "ree": 351,
      "gree": 352,
      "greeting": 353,
      "13": 354,
      "mu": 355,
      "19": 356,
      "st": 357,
      "18": 358,
      "ca": 359,
      "12": 360,
      "efix": 361,
      "prefix": 362,
      "11": 363,
      "14": 364,
      "15": 365,
      "test": 366,
      "tus": 367,
      "status": 368,
      "path": 369,
      "16": 370,
      "ry": 371,
      "put": 372,
      "que": 373,
      "tag": 374,
      "query": 375,
      "out": 376,
      "output": 377,
      "lin": 378,
      "bar": 379,
      "line": 380,
      "17": 381,
      "word": 382,
      "info": 383,
      "lang": 384,
      "uage": 385,
      "language": 386,
      "er": 387,
      "baz": 388,
      "qu": 389,
      "ello": 390,
      "mufi": 391,
      "hello": 392,
      "qux": 393,
      "data": 394,
      "lea": 395,
      "leaf": 396,
      "ken": 397,
      "lab": 398,
      "token": 399,
      "label": 400,
      "code": 401,
      "bu": 402,
      "ld": 403,
      "foo": 404,
      "node": 405,
      "ffix": 406,
      "suffix": 407,
      "20": 408,
      "sc": 409,
      "73": 410,
      "47": 411,
      "50": 412,
      "ror": 413,
      "error": 414,
      "55": 415,
      "xt": 416,
      "desc": 417,
      "ot": 418,
      "root": 419,
      "text": 420,
      "21": 421,
      "94": 422,
      "28": 423,
      "52": 424,
      "84": 425,
      "bug": 426,
      "36": 427,
      "49": 428,
      "90": 429,
      "debug": 430,
      "arn": 431,
      "warn": 432,
      "world": 433,
      "warning": 434,
      "56": 435,
      "77": 436,
      "43": 437,
      "95": 438,
      "teg": 439,
      "96": 440,
      "44": 441,
      "45": 442,
      "79": 443,
      "81": 444,
      "37": 445,
      "70": 446,
      "ory": 447,
      "categ": 448,
      "category": 449,
      "22": 450,
      "33": 451,
      "26": 452,
      "99": 453,
      "66": 454,
      "71": 455,
      "31": 456,
      "39": 457,
      "57": 458,
      "24": 459,
      "64": 460,
      "68": 461,
      "82": 462,
      "msg": 463,
      "67": 464,
      "74": 465,
      "76": 466,
      "83": 467,
      "98": 468,
      "62": 469,
      "78": 470,
      "92": 471,
      "27": 472,
      "87": 473,
      "91": 474,
      "29": 475,
      "97": 476,
      "35": 477,
      "60": 478,
      "53": 479,
      "30": 480,
      "25": 481,
      "72": 482,
      "88": 483,
      "69": 484,
      "61": 485,
      "54": 486,
      "59": 487,
      "34": 488,
      "38": 489,
      "86": 490,
      "51": 491,
      "tit": 492,
      "title": 493,
      "85": 494,
      "42": 495,
      "48": 496,
      "41": 497,
      "58": 498,
      "63": 499,
      "80": 500,
      "40": 501,
      "93": 502,
      "23": 503,
      "32": 504,
      "65": 505,
      "75": 506,
      "89": 507,
      "log": 508,
      "46": 509,
      "ex": 510,
      "100": 511,
      "log10": 512,
      "maxl": 513,
      "tan": 514,
      "pow": 515,
      "qrt": 516,
      "sqrt": 517,
      "asin": 518,
      "flo": 519,
      "floor": 520,
      "cos": 521,
      "exp": 522,
      "os": 523,
      "sin": 524,
      "atan": 525,
      "ce": 526,
      "acos": 527,
      "log2": 528,
      "minl": 529,
      "round": 530,
      "rand": 531,
      "ceil": 532,
      "Tes": 533,
      "Test": 534,
      "tin": 535,
      "contin": 536,
      "continue": 537,
      "mp": 538,
      "cal": 539,
      "ate": 540,
      "brea": 541,
      "break": 542,
      "ly": 543,
      "ute": 544,
      "ar": 545,
      "op": 546,
      "ply": 547,
      "for": 548,
      "ll": 549,
      "ctor": 550,
      "late": 551,
      "comp": 552,
      "Lo": 553,
      "wit": 554,
      "vector": 555,
      "lti": 556,
      "AM": 557,
      "GR": 558,
      "OGR": 559,
      "PR": 560,
      "OGRAM": 561,
      "PROGRAM": 562,
      "get": 563,
      "ad": 564,
      "mpa": 565,
      "mall": 566,
      "sub": 567,
      "div": 568,
      "add": 569,
      "ted": 570,
      "stan": 571,
      "ide": 572,
      "compa": 573,
      "ans": 574,
      "loop": 575,
      "multi": 576,
      "compare": 577,
      "Co": 578,
      "fin": 579,
      "trans": 580,
      "calc": 581,
      "form": 582,
      "divide": 583,
      "multiply": 584,
      "transform": 585,
      "um": 586,
      "stant": 587,
      "umu": 588,
      "tract": 589,
      "apply": 590,
      "subtract": 591,
      "vec": 592,
      "lot": 593,
      "tte": 594,
      "accumu": 595,
      "validate": 596,
      "compute": 597,
      "Local": 598,
      "ttern": 599,
      "accumulate": 600,
      "al": 601,
      "slot": 602,
      "local": 603,
      "with": 604,
      "find": 605,
      "oo": 606,
      "ter": 607,
      "process": 608,
      "ecute": 609,
      "execute": 610,
      "calcu": 611,
      "LO": 612,
      "ou": 613,
      "nor": 614,
      "check": 615,
      "date": 616,
      "pdate": 617,
      "update": 618,
      "norma": 619,
      "inter": 620,
      "lize": 621,
      "tion": 622,
      "normalize": 623,
      "interp": 624,
      "Small": 625,
      "ild": 626,
      "olate": 627,
      "build": 628,
      "interpolate": 629,
      "AL": 630,
      "ET": 631,
      "lf": 632,
      "ment": 633,
      "self": 634,
      "constant": 635,
      "tions": 636,
      "calculate": 637,
      "vert": 638,
      "convert": 639,
      "arr": 640,
      "OP": 641,
      "cla": 642,
      "ould": 643,
      "clamp": 644,
      "ha": 645,
      "pus": 646,
      "ort": 647,
      "range": 648,
      "push": 649,
      "ST": 650,
      "fro": 651,
      "on": 652,
      "map": 653,
      "tim": 654,
      "ner": 655,
      "should": 656,
      "from": 657,
      "comple": 658,
      "tterns": 659,
      "Re": 660,
      "ested": 661,
      "counter": 662,
      "Locals": 663,
      "constants": 664,
      "use": 665,
      "inner": 666,
      "ray": 667,
      "mple": 668,
      "GET": 669,
      "ss": 670,
      "ith": 671,
      "uter": 672,
      "Loop": 673,
      "witch": 674,
      "Pa": 675,
      "ump": 676,
      "array": 677,
      "optim": 678,
      "Result": 679,
      "00": 680,
      "In": 681,
      "Th": 682,
      "ay": 683,
      "switch": 684,
      "CO": 685,
      "Sh": 686,
      "be": 687,
      "ction": 688,
      "num": 689,
      "outer": 690,
      "small": 691,
      "zoo": 692,
      "perations": 693,
      "const": 694,
      "row": 695,
      "patterns": 696,
      "BAL": 697,
      "GLO": 698,
      "ele": 699,
      "ons": 700,
      "press": 701,
      "call": 702,
      "GLOBAL": 703,
      "pressi": 704,
      "Sum": 705,
      "pty": 706,
      "empty": 707,
      "ized": 708,
      "STA": 709,
      "optimized": 710,
      "Short": 711,
      "Nested": 712,
      "OR": 713,
      "day": 714,
      "iz": 715,
      "Con": 716,
      "umps": 717,
      "Ex": 718,
      "Mu": 719,
      "Pha": 720,
      "ation": 721,
      "imple": 722,
      "nacc": 723,
      "yte": 724,
      "init": 725,
      "bonacc": 726,
      "temp": 727,
      "arith": 728,
      "Pattern": 729,
      "Constant": 730,
      "Multi": 731,
      "Phase": 732,
      "bonacci": 733,
      "EST": 734,
      "Lar": 735,
      "NT": 736,
      "NSTA": 737,
      "PL": 738,
      "TEST": 739,
      "Ve": 740,
      "arc": 741,
      "ip": 742,
      "ix": 743,
      "iable": 744,
      "ice": 745,
      "operations": 746,
      "oice": 747,
      "rip": 748,
      "x1": 749,
      "searc": 750,
      "dium": 751,
      "choice": 752,
      "Testing": 753,
      "This": 754,
      "CONSTA": 755,
      "element": 756,
      "pressions": 757,
      "ization": 758,
      "Large": 759,
      "Vector": 760,
      "ript": 761,
      "search": 762,
      "CONSTANT": 763,
      "Ar": 764,
      "CAL": 765,
      "Fi": 766,
      "Fun": 767,
      "Simple": 768,
      "nth": 769,
      "nested": 770,
      "ple": 771,
      "rement": 772,
      "orted": 773,
      "ant": 774,
      "meti": 775,
      "ingle": 776,
      "stru": 777,
      "script": 778,
      "loops": 779,
      "Comple": 780,
      "locals": 781,
      "LOOP": 782,
      "LOCAL": 783,
      "complete": 784,
      "metic": 785,
      "MPL": 786,
      "Op": 787,
      "Var": 788,
      "at": 789,
      "byte": 790,
      "cmp": 791,
      "crement": 792,
      "ed": 793,
      "nment": 794,
      "rge": 795,
      "tp": 796,
      "x2": 797,
      "mess": 798,
      "fibonacci": 799,
      "ignment": 800,
      "http": 801,
      "result1": 802,
      "result2": 803,
      "lations": 804,
      "large": 805,
      "Coun": 806,
      "Multiple": 807,
      "searching": 808,
      "Function": 809,
      "message": 810,
      "En": 811,
      "Foo": 812,
      "HOR": 813,
      "Jumps": 814,
      "Mess": 815,
      "SHOR": 816,
      "Val": 817,
      "c2": 818,
      "crea": 819,
      "ep": 820,
      "l2": 821,
      "m1": 822,
      "m2": 823,
      "m3": 824,
      "rin": 825,
      "sorted": 826,
      "single": 827,
      "inal": 828,
      "variable": 829,
      "ther": 830,
      "pect": 831,
      "perin": 832,
      "medium": 833,
      "time": 834,
      "indexing": 835,
      "loba": 836,
      "ass": 837,
      "cond": 838,
      "testLocals": 839,
      "qual": 840,
      "expressions": 841,
      "ard": 842,
      "vec1": 843,
      "vec2": 844,
      "ithmetic": 845,
      "Patterns": 846,
      "ixed": 847,
      "elements": 848,
      "Arithmetic": 849,
      "Complete": 850,
      "Counter": 851,
      "End": 852,
      "Message": 853,
      "SHORT": 854,
      "perinstru": 855,
      "lobal": 856,
      "AD": 857,
      "Ac": 858,
      "Access": 859,
      "All": 860,
      "Crea": 861,
      "Emp": 862,
      "For": 863,
      "Final": 864,
      "Mixed": 865,
      "Operations": 866,
      "all": 867,
      "gra": 868,
      "ic": 869,
      "jumps": 870,
      "list": 871,
      "mpo": 872,
      "one": 873,
      "pha": 874,
      "ris": 875,
      "rst": 876,
      "wo": 877,
      "x3": 878,
      "don": 879,
      "fib": 880,
      "bool1": 881,
      "bool2": 882,
      "rank3": 883,
      "result3": 884,
      "work": 885,
      "200": 886,
      "arg": 887,
      "mparis": 888,
      "addSmall": 889,
      "Compo": 890,
      "Comparis": 891,
      "alpha": 892,
      "calculations": 893,
      "ETE": 894,
      "timization": 895,
      "COMPL": 896,
      "const1": 897,
      "const2": 898,
      "calls": 899,
      "Constants": 900,
      "First": 901,
      "Optimization": 902,
      "created": 903,
      "perinstruction": 904,
      "ADD": 905,
      "Empty": 906,
      "Compound": 907,
      "COMPLETE": 908,
      "Ass": 909,
      "Boo": 910,
      "DE": 911,
      "De": 912,
      "Fo": 913,
      "IN": 914,
      "Ite": 915,
      "Me": 916,
      "Mo": 917,
      "Man": 918,
      "Other": 919,
      "Se": 920,
      "Sta": 921,
      "Zoo": 922,
      "aard": 923,
      "ban": 924,
      "c1": 925,
      "c3": 926,
      "c4": 927,
      "ctions": 928,
      "dt": 929,
      "fvec": 930,
      "hant": 931,
      "ima": 932,
      "l0": 933,
      "l1": 934,
      "l3": 935,
      "mou": 936,
      "mon": 937,
      "pp": 938,
      "pac": 939,
      "phant": 940,
      "spac": 941,
      "tun": 942,
      "v1": 943,
      "v2": 944,
      "wing": 945,
      "increment": 946,
      "vark": 947,
      "rect": 948,
      "access": 949,
      "deep": 950,
      "demon": 951,
      "lean": 952,
      "fox": 953,
      "eld": 954,
      "that": 955,
      "ana": 956,
      "strate": 957,
      "dowing": 958,
      "field": 959,
      "statem": 960,
      "boon": 961,
      "result4": 962,
      "result5": 963,
      "doubled": 964,
      "baboon": 965,
      "short": 966,
      "ration": 967,
      "cat": 968,
      "127": 969,
      "tests": 970,
      "linspac": 971,
      "8000": 972,
      "expect": 973,
      "10000": 974,
      "forSum": 975,
      "vectors": 976,
      "getMessage": 977,
      "slots": 978,
      "localResult": 979,
      "hay": 980,
      "complex": 981,
      "completed": 982,
      "optimization": 983,
      "beta": 984,
      "elephant": 985,
      "pression": 986,
      "Create": 987,
      "grass": 988,
      "donkey": 989,
      "works": 990,
      "Assignment": 991,
      "Many": 992,
      "Second": 993,
      "aardvark": 994,
      "banana": 995,
      "imal": 996,
      "mouse": 997,
      "tuna": 998,
      "demonstrate": 999,
      "statement": 1000,
      "linspace": 1001,
      "255": 1002,
      "Bas": 1003,
      "Byte": 1004,
      "Call": 1005,
      "Dec": 1006,
      "Equal": 1007,
      "Global": 1008,
      "Min": 1009,
      "Nil": 1010,
      "Nes": 1011,
      "Outer": 1012,
      "RT": 1013,
      "Str": 1014,
      "SET": 1015,
      "Sha": 1016,
      "ain": 1017,
      "ame": 1018,
      "c0": 1019,
      "c5": 1020,
      "cl": 1021,
      "dS": 1022,
      "equal": 1023,
      "fu": 1024,
      "fter": 1025,
      "global": 1026,
      "ir": 1027,
      "ich": 1028,
      "jump": 1029,
      "lly": 1030,
      "ome": 1031,
      "r1": 1032,
      "r2": 1033,
      "sort": 1034,
      "two": 1035,
      "res": 1036,
      "trix": 1037,
      "dex": 1038,
      "defin": 1039,
      "superinstruction": 1040,
      "supp": 1041,
      "faile": 1042,
      "rating": 1043,
      "matrix": 1044,
      "the": 1045,
      "whos": 1046,
      "which": 1047,
      "pop": 1048,
      "sum1": 1049,
      "rting": 1050,
      "ver": 1051,
      "successfu": 1052,
      "items": 1053,
      "using": 1054,
      "mul": 1055,
      "testShort": 1056,
      "codes": 1057,
      "tegration": 1058,
      "1000": 1059,
      "opcodes": 1060,
      "local1": 1061,
      "local2": 1062,
      "arr2": 1063,
      "Return": 1064,
      "uses": 1065,
      "Loops": 1066,
      "Inner": 1067,
      "Index": 1068,
      "Integration": 1069,
      "Thir": 1070,
      "row1": 1071,
      "row2": 1072,
      "row3": 1073,
      "call1": 1074,
      "call2": 1075,
      "START": 1076,
      "Expressions": 1077,
      "arith1": 1078,
      "arith2": 1079,
      "Fibonacci": 1080,
      "Variable": 1081,
      "cmp2": 1082,
      "assignment": 1083,
      "Active": 1084,
      "args": 1085,
      "Comparisons": 1086,
      "Boolean": 1087,
      "Iterating": 1088,
      "Medium": 1089,
      "More": 1090,
      "Starting": 1091,
      "statements": 1092,
      "Basic": 1093,
      "Bytecode": 1094,
      "Calls": 1095,
      "Minimal": 1096,
      "String": 1097,
      "Shadowing": 1098,
      "class": 1099,
      "failed": 1100,
      "successfully": 1101,
      "testShortJumps": 1102,
      "Third": 1103,
      "AC": 1104,
      "Ano": 1105,
      "Area": 1106,
      "Ave": 1107,
      "Ana": 1108,
      "After": 1109,
      "BU": 1110,
      "CT": 1111,
      "Clo": 1112,
      "Cal": 1113,
      "Day": 1114,
      "Each": 1115,
      "EAC": 1116,
      "ECT": 1117,
      "Fa": 1118,
      "FOR": 1119,
      "FIN": 1120,
      "IM": 1121,
      "Id": 1122,
      "IPL": 1123,
      "IMPL": 1124,
      "Jump": 1125,
      "LT": 1126,
      "MU": 1127,
      "MIN": 1128,
      "Name": 1129,
      "One": 1130,
      "Pro": 1131,
      "Su": 1132,
      "Slot": 1133,
      "Switch": 1134,
      "Single": 1135,
      "SIMPL": 1136,
      "Two": 1137,
      "VECT": 1138,
      "am": 1139,
      "by": 1140,
      "bin": 1141,
      "c6": 1142,
      "c7": 1143,
      "c8": 1144,
      "c9": 1145,
      "cu": 1146,
      "c10": 1147,
      "cand": 1148,
      "cture": 1149,
      "c13": 1150,
      "c12": 1151,
      "c11": 1152,
      "c14": 1153,
      "c15": 1154,
      "c16": 1155,
      "clea": 1156,
      "c20": 1157,
      "c100": 1158,
      "cted": 1159,
      "cumu": 1160,
      "cDec": 1161,
      "dard": 1162,
      "ere": 1163,
      "erc": 1164,
      "fra": 1165,
      "g1": 1166,
      "g2": 1167,
      "g3": 1168,
      "g4": 1169,
      "g5": 1170,
      "grea": 1171,
      "gic": 1172,
      "gone": 1173,
      "ise": 1174,
      "l4": 1175,
      "l5": 1176,
      "l6": 1177,
      "l7": 1178,
      "l10": 1179,
      "m0": 1180,
      "nt": 1181,
      "nes": 1182,
      "ona": 1183,
      "sis": 1184,
      "sig": 1185,
      "sav": 1186,
      "sday": 1187,
      "siz": 1188,
      "tor": 1189,
      "wil": 1190,
      "wes": 1191,
      "x0": 1192,
      "x4": 1193,
      "x5": 1194,
      "instan": 1195,
      "infra": 1196,
      "ify": 1197,
      "ref": 1198,
      "ret": 1199,
      "isActive": 1200,
      "nilVal": 1201,
      "del": 1202,
      "trueVal": 1203,
      "falseVal": 1204,
      "tation": 1205,
      "rage": 1206,
      "tected": 1207,
      "man": 1208,
      "make": 1209,
      "than": 1210,
      "ped": 1211,
      "str1": 1212,
      "str2": 1213,
      "str3": 1214,
      "idate": 1215,
      "post": 1216,
      "protected": 1217,
      "sum2": 1218,
      "offset4": 1219,
      "result6": 1220,
      "result7": 1221,
      "result8": 1222,
      "result10": 1223,
      "new": 1224,
      "next": 1225,
      "remainder6": 1226,
      "scope": 1227,
      "direct": 1228,
      "area4": 1229,
      "returnLocal": 1230,
      "returnSmall": 1231,
      "returnLarge": 1232,
      "function": 1233,
      "functions": 1234,
      "chain": 1235,
      "lator": 1236,
      "ists": 1237,
      "ition": 1238,
      "itiona": 1239,
      "value1": 1240,
      "value2": 1241,
      "value3": 1242,
      "value4": 1243,
      "value5": 1244,
      "pattern": 1245,
      "case": 1246,
      "testSmall": 1247,
      "testLoop": 1248,
      "testIn": 1249,
      "testMulti": 1250,
      "testMixed": 1251,
      "testCompound": 1252,
      "testAssignment": 1253,
      "testMany": 1254,
      "testShadowing": 1255,
      "linked": 1256,
      "foo2": 1257,
      "expression": 1258,
      "exerc": 1259,
      "exists": 1260,
      "lysis": 1261,
      "Logic": 1262,
      "subResult": 1263,
      "divResult": 1264,
      "addResult": 1265,
      "final": 1266,
      "vec3": 1267,
      "local3": 1268,
      "localSum": 1269,
      "localPro": 1270,
      "ALL": 1271,
      "constantTest": 1272,
      "calculateArea": 1273,
      "complex1": 1274,
      "complex2": 1275,
      "innerVar": 1276,
      "Increment": 1277,
      "Three": 1278,
      "Should": 1279,
      "outerVar": 1280,
      "const3": 1281,
      "constResult": 1282,
      "call3": 1283,
      "dayName": 1284,
      "Exit": 1285,
      "Expect": 1286,
      "Expression": 1287,
      "temp1": 1288,
      "temp2": 1289,
      "temp3": 1290,
      "arith3": 1291,
      "arithmetic": 1292,
      "Array": 1293,
      "structure": 1294,
      "Complex": 1295,
      "LOOPS": 1296,
      "Ops": 1297,
      "cmp1": 1298,
      "cmp3": 1299,
      "https": 1300,
      "messageId": 1301,
      "c255": 1302,
      "Accumu": 1303,
      "fib5": 1304,
      "fib6": 1305,
      "Comparison": 1306,
      "DEBU": 1307,
      "DEFIN": 1308,
      "Deep": 1309,
      "Foreach": 1310,
      "Found": 1311,
      "deepResult": 1312,
      "deepNes": 1313,
      "1000000": 1314,
      "complexA": 1315,
      "complexB": 1316,
      "globalSum": 1317,
      "definition": 1318,
      "supported": 1319,
      "popped": 1320,
      "mulResult": 1321,
      "Another": 1322,
      "Average": 1323,
      "Analysis": 1324,
      "Closure": 1325,
      "Calcu": 1326,
      "EACH": 1327,
      "FOREACH": 1328,
      "IMAL": 1329,
      "LTIPL": 1330,
      "MULTIPL": 1331,
      "MINIMAL": 1332,
      "Superinstruction": 1333,
      "Slots": 1334,
      "SIMPLE": 1335,
      "VECTOR": 1336,
      "amt": 1337,
      "candidate": 1338,
      "clear": 1339,
      "erent": 1340,
      "greater": 1341,
      "sigma": 1342,
      "saves": 1343,
      "sizes": 1344,
      "will": 1345,
      "wesome": 1346,
      "instance": 1347,
      "infrastructure": 1348,
      "makeCounter": 1349,
      "itional": 1350,
      "testSmallLocals": 1351,
      "testIncDec": 1352,
      "testMultiOps": 1353,
      "testMixedLocals": 1354,
      "testManyLocals": 1355,
      "exercise": 1356,
      "localProduct": 1357,
      "Accumulator": 1358,
      "DEBUG": 1359,
      "DEFINE": 1360,
      "deepNest": 1361,
      "Calculations": 1362,
      "05": 1363,
      "AN": 1364,
      "App": 1365,
      "Awesome": 1366,
      "Be": 1367,
      "Bel": 1368,
      "Ch": 1369,
      "Di": 1370,
      "Do": 1371,
      "Diff": 1372,
      "Dou": 1373,
      "Ear": 1374,
      "Fr": 1375,
      "Flo": 1376,
      "Goo": 1377,
      "Hello": 1378,
      "Init": 1379,
      "Ins": 1380,
      "JU": 1381,
      "MP": 1382,
      "Ma": 1383,
      "Mon": 1384,
      "NO": 1385,
      "No": 1386,
      "Or": 1387,
      "Sa": 1388,
      "Sc": 1389,
      "St": 1390,
      "Size": 1391,
      "Sund": 1392,
      "Stan": 1393,
      "Some": 1394,
      "Tr": 1395,
      "Tue": 1396,
      "Un": 1397,
      "Us": 1398,
      "Ver": 1399,
      "We": 1400,
      "Wh": 1401,
      "Wor": 1402,
      "Wed": 1403,
      "You": 1404,
      "ag": 1405,
      "ava": 1406,
      "ary": 1407,
      "adowing": 1408,
      "after": 1409,
      "awesome": 1410,
      "bl": 1411,
      "bra": 1412,
      "but": 1413,
      "ber": 1414,
      "cit": 1415,
      "cen": 1416,
      "cor": 1417,
      "cel": 1418,
      "can": 1419,
      "cro": 1420,
      "cuses": 1421,
      "ditional": 1422,
      "eb": 1423,
      "each": 1424,
      "ern": 1425,
      "ect": 1426,
      "erate": 1427,
      "eav": 1428,
      "eply": 1429,
      "eration": 1430,
      "f5": 1431,
      "fv": 1432,
      "fif": 1433,
      "fresh": 1434,
      "gh": 1435,
      "gen": 1436,
      "gith": 1437,
      "heav": 1438,
      "io": 1439,
      "ies": 1440,
      "imp": 1441,
      "ial": 1442,
      "ion": 1443,
      "ject": 1444,
      "know": 1445,
      "mo": 1446,
      "men": 1447,
      "mixed": 1448,
      "nSum": 1449,
      "nNested": 1450,
      "nLarge": 1451,
      "nMessage": 1452,
      "nSta": 1453,
      "nExpression": 1454,
      "od": 1455,
      "ow": 1456,
      "opera": 1457,
      "olean": 1458,
      "page": 1459,
      "port": 1460,
      "ract": 1461,
      "rday": 1462,
      "rver": 1463,
      "rsday": 1464,
      "sol": 1465,
      "slo": 1466,
      "soo": 1467,
      "same": 1468,
      "ten": 1469,
      "ub": 1470,
      "ual": 1471,
      "utation": 1472,
      "ugh": 1473,
      "ursday": 1474,
      "wer": 1475,
      "web": 1476,
      "ins": 1477,
      "inste": 1478,
      "vario": 1479,
      "intern": 1480,
      "reco": 1481,
      "repos": 1482,
      "ress": 1483,
      "rever": 1484,
      "reject": 1485,
      "iling": 1486,
      "ilable": 1487,
      "ilation": 1488,
      "sequ": 1489,
      "server": 1490,
      "tral": 1491,
      "itor": 1492,
      "iteration": 1493,
      "ence": 1494,
      "ded": 1495,
      "det": 1496,
      "decrement": 1497,
      "superinstru": 1498,
      "fail": 1499,
      "tains": 1500,
      "les": 1501,
      "lect": 1502,
      "leans": 1503,
      "teen": 1504,
      "teste": 1505,
      "fore": 1506,
      "fold": 1507,
      "focuses": 1508,
      "math": 1509,
      "org": 1510,
      "uniti": 1511,
      "com": 1512,
      "thing": 1513,
      "thro": 1514,
      "thod": 1515,
      "blem": 1516,
      "esn": 1517,
      "minimal": 1518,
      "turday": 1519,
      "dot": 1520,
      "doesn": 1521,
      "five": 1522,
      "lent": 1523,
      "iginal": 1524,
      "api": 1525,
      "iday": 1526,
      "proj": 1527,
      "problem": 1528,
      "real": 1529,
      "topi": 1530,
      "age5": 1531,
      "boolean": 1532,
      "item2": 1533,
      "result9": 1534,
      "like": 1535,
      "libra": 1536,
      "licit": 1537,
      "zero": 1538,
      "index7": 1539,
      "indexes": 1540,
      "load": 1541,
      "diff2": 1542,
      "different": 1543,
      "remain": 1544,
      "dules": 1545,
      "keyword": 1546,
      "ubled": 1547,
      "density7": 1548,
      "radius3": 1549,
      "gnition": 1550,
      "shadowing": 1551,
      "temperature2": 1552,
      "ready2": 1553,
      "contains": 1554,
      "approx6": 1555,
      "ratio8": 1556,
      "eck": 1557,
      "itions": 1558,
      "position": 1559,
      "values": 1560,
      "111": 1561,
      "1415": 1562,
      "555": 1563,
      "777": 1564,
      "444": 1565,
      "222": 1566,
      "333": 1567,
      "888": 1568,
      "float": 1569,
      "explicit": 1570,
      "Tests": 1571,
      "ops": 1572,
      "opport": 1573,
      "computation": 1574,
      "compilation": 1575,
      "added": 1576,
      "addfv": 1577,
      "standard": 1578,
      "multiple": 1579,
      "norm": 1580,
      "normal": 1581,
      "interp1": 1582,
      "orts": 1583,
      "used": 1584,
      "Invalid": 1585,
      "Inactive": 1586,
      "Thursday": 1587,
      "number": 1588,
      "Conditional": 1589,
      "Excel": 1590,
      "implement": 1591,
      "implemen": 1592,
      "TESTS": 1593,
      "Functions": 1594,
      "atVector": 1595,
      "bytes": 1596,
      "bytecode": 1597,
      "httpbin": 1598,
      "large1": 1599,
      "large2": 1600,
      "large3": 1601,
      "larger": 1602,
      "Count": 1603,
      "create": 1604,
      "variables": 1605,
      "conditional": 1606,
      "conditions": 1607,
      "Accessing": 1608,
      "Creating": 1609,
      "grade": 1610,
      "COMPLETED": 1611,
      "Booleans": 1612,
      "Debug": 1613,
      "Deeply": 1614,
      "Iterate": 1615,
      "Method": 1616,
      "Modules": 1617,
      "rectly": 1618,
      "demonstrates": 1619,
      "Decrement": 1620,
      "Nesting": 1621,
      "globals": 1622,
      "jump1": 1623,
      "jump2": 1624,
      "define": 1625,
      "support": 1626,
      "verify": 1627,
      "Returns": 1628,
      "False": 1629,
      "Failing": 1630,
      "binary": 1631,
      "nesting": 1632,
      "nesday": 1633,
      "refract": 1634,
      "reflect": 1635,
      "many": 1636,
      "manual": 1637,
      "chains": 1638,
      "cases": 1639,
      "10000000": 1640,
      "100000000": 1641,
      "Closures": 1642,
      "MULTIPLE": 1643,
      "MULTIPLY": 1644,
      "candidates": 1645,
      "exercised": 1646,
      "exercises": 1647,
      "AND": 1648,
      "Before": 1649,
      "Below": 1650,
      "Check": 1651,
      "Direct": 1652,
      "Doubled": 1653,
      "Different": 1654,
      "Doubl": 1655,
      "Early": 1656,
      "Friday": 1657,
      "FloatVector": 1658,
      "Good": 1659,
      "Initial": 1660,
      "Inside": 1661,
      "JUMP": 1662,
      "Make": 1663,
      "Monday": 1664,
      "NOT": 1665,
      "Original": 1666,
      "Saturday": 1667,
      "Script": 1668,
      "Stress": 1669,
      "Sunday": 1670,
      "Standard": 1671,
      "Something": 1672,
      "True": 1673,
      "Tuesday": 1674,
      "Unknow": 1675,
      "Using": 1676,
      "Verify": 1677,
      "While": 1678,
      "World": 1679,
      "Wednesday": 1680,
      "Your": 1681,
      "again": 1682,
      "available": 1683,
      "central": 1684,
      "correctly": 1685,
      "cross": 1686,
      "fifteen": 1687,
      "generate": 1688,
      "github": 1689,
      "heavy": 1690,
      "imports": 1691,
      "more": 1692,
      "nStatus": 1693,
      "operation": 1694,
      "solve": 1695,
      "slower": 1696,
      "soon": 1697,
      "instead": 1698,
      "various": 1699,
      "internal": 1700,
      "recognition": 1701,
      "repositor": 1702,
      "reverse": 1703,
      "sequence": 1704,
      "superinstructions": 1705,
      "tested": 1706,
      "folding": 1707,
      "unities": 1708,
      "through": 1709,
      "topic": 1710,
      "library": 1711,
      "14159": 1712,
      "opportunities": 1713,
      "Excellent": 1714,
      "implementation": 1715,
      "manually": 1716,
      "Doubling": 1717,
      "Unknown": 1718,
      "repositories": 1719
    },
    "merges": [
      [
        "v",
        "a"
      ],
      [
        "i",
        "n"
      ],
      [
        "va",
        "r"
      ],
      [
        "p",
        "r"
      ],
      [
        "in",
        "t"
      ],
      [
        "pr",
        "int"
      ],
      [
        "i",
        "f"
      ],
      [
        "l",
        "n"
      ],
      [
        "print",
        "ln"
      ],
      [
        "r",
        "e"
      ],
      [
        "i",
        "l"
      ],
      [
        "s",
        "e"
      ],
      [
        "i",
        "s"
      ],
      [
        "l",
        "se"
      ],
      [
        "n",
        "il"
      ],
      [
        "t",
        "r"
      ],
      [
        "i",
        "t"
      ],
      [
        "e",
        "n"
      ],
      [
        "u",
        "e"
      ],
      [
        "a",
        "c"
      ],
      [
        "d",
        "e"
      ],
      [
        "tr",
        "ue"
      ],
      [
        "s",
        "u"
      ],
      [
        "n",
        "o"
      ],
      [
        "f",
        "a"
      ],
      [
        "fa",
        "lse"
      ],
      [
        "t",
        "a"
      ],
      [
        "l",
        "e"
      ],
      [
        "r",
        "a"
      ],
      [
        "va",
        "l"
      ],
      [
        "t",
        "e"
      ],
      [
        "f",
        "o"
      ],
      [
        "m",
        "a"
      ],
      [
        "o",
        "l"
      ],
      [
        "o",
        "r"
      ],
      [
        "e",
        "lse"
      ],
      [
        "e",
        "l"
      ],
      [
        "u",
        "n"
      ],
      [
        "c",
        "o"
      ],
      [
        "t",
        "h"
      ],
      [
        "p",
        "e"
      ],
      [
        "it",
        "y"
      ],
      [
        "a",
        "n"
      ],
      [
        "m",
        "e"
      ],
      [
        "o",
        "f"
      ],
      [
        "no",
        "t"
      ],
      [
        "w",
        "h"
      ],
      [
        "il",
        "e"
      ],
      [
        "wh",
        "ile"
      ],
      [
        "in",
        "g"
      ],
      [
        "s",
        "tr"
      ],
      [
        "g",
        "e"
      ],
      [
        "ac",
        "h"
      ],
      [
        "re",
        "ach"
      ],
      [
        "fo",
        "reach"
      ],
      [
        "b",
        "le"
      ],
      [
        "e",
        "s"
      ],
      [
        "m",
        "in"
      ],
      [
        "in",
        "de"
      ],
      [
        "t",
        "u"
      ],
      [
        "p",
        "o"
      ],
      [
        "d",
        "o"
      ],
      [
        "no",
        "w"
      ],
      [
        "ma",
        "x"
      ],
      [
        "f",
        "i"
      ],
      [
        "l",
        "en"
      ],
      [
        "i",
        "g"
      ],
      [
        "h",
        "t"
      ],
      [
        "e",
        "ig"
      ],
      [
        "eig",
        "ht"
      ],
      [
        "a",
        "p"
      ],
      [
        "s",
        "ta"
      ],
      [
        "i",
        "d"
      ],
      [
        "po",
        "s"
      ],
      [
        "v",
        "el"
      ],
      [
        "pr",
        "o"
      ],
      [
        "su",
        "m"
      ],
      [
        "re",
        "a"
      ],
      [
        "t",
        "y"
      ],
      [
        "ty",
        "pe"
      ],
      [
        "k",
        "e"
      ],
      [
        "r",
        "t"
      ],
      [
        "v",
        "ol"
      ],
      [
        "en",
        "d"
      ],
      [
        "t",
        "i"
      ],
      [
        "t",
        "o"
      ],
      [
        "a",
        "ge"
      ],
      [
        "b",
        "o"
      ],
      [
        "bo",
        "ol"
      ],
      [
        "v",
        "e"
      ],
      [
        "sta",
        "rt"
      ],
      [
        "ra",
        "n"
      ],
      [
        "a",
        "b"
      ],
      [
        "an",
        "g"
      ],
      [
        "se",
        "t"
      ],
      [
        "es",
        "s"
      ],
      [
        "c",
        "ess"
      ],
      [
        "f",
        "set"
      ],
      [
        "of",
        "fset"
      ],
      [
        "ran",
        "k"
      ],
      [
        "c",
        "cess"
      ],
      [
        "su",
        "ccess"
      ],
      [
        "r",
        "n"
      ],
      [
        "e",
        "m"
      ],
      [
        "l",
        "t"
      ],
      [
        "su",
        "lt"
      ],
      [
        "it",
        "em"
      ],
      [
        "re",
        "sult"
      ],
      [
        "l",
        "i"
      ],
      [
        "1",
        "0"
      ],
      [
        "m",
        "it"
      ],
      [
        "li",
        "mit"
      ],
      [
        "c",
        "ity"
      ],
      [
        "c",
        "ap"
      ],
      [
        "ac",
        "ity"
      ],
      [
        "cap",
        "acity"
      ],
      [
        "z",
        "e"
      ],
      [
        "h",
        "eight"
      ],
      [
        "n",
        "e"
      ],
      [
        "inde",
        "x"
      ],
      [
        "s",
        "te"
      ],
      [
        "i",
        "ze"
      ],
      [
        "ste",
        "p"
      ],
      [
        "do",
        "ne"
      ],
      [
        "s",
        "ize"
      ],
      [
        "m",
        "s"
      ],
      [
        "w",
        "id"
      ],
      [
        "wid",
        "th"
      ],
      [
        "ta",
        "l"
      ],
      [
        "an",
        "d"
      ],
      [
        "to",
        "tal"
      ],
      [
        "o",
        "k"
      ],
      [
        "le",
        "vel"
      ],
      [
        "l",
        "o"
      ],
      [
        "if",
        "f"
      ],
      [
        "d",
        "iff"
      ],
      [
        "c",
        "t"
      ],
      [
        "re",
        "ma"
      ],
      [
        "inde",
        "r"
      ],
      [
        "rema",
        "inder"
      ],
      [
        "s",
        "co"
      ],
      [
        "sco",
        "re"
      ],
      [
        "co",
        "un"
      ],
      [
        "d",
        "u"
      ],
      [
        "du",
        "ct"
      ],
      [
        "n",
        "a"
      ],
      [
        "pro",
        "duct"
      ],
      [
        "coun",
        "t"
      ],
      [
        "na",
        "me"
      ],
      [
        "a",
        "s"
      ],
      [
        "p",
        "th"
      ],
      [
        "de",
        "pth"
      ],
      [
        "un",
        "d"
      ],
      [
        "ke",
        "y"
      ],
      [
        "u",
        "t"
      ],
      [
        "p",
        "i"
      ],
      [
        "u",
        "ble"
      ],
      [
        "do",
        "uble"
      ],
      [
        "d",
        "i"
      ],
      [
        "b",
        "a"
      ],
      [
        "fi",
        "x"
      ],
      [
        "ac",
        "c"
      ],
      [
        "u",
        "s"
      ],
      [
        "ra",
        "te"
      ],
      [
        "ab",
        "s"
      ],
      [
        "d",
        "en"
      ],
      [
        "s",
        "ity"
      ],
      [
        "den",
        "sity"
      ],
      [
        "ra",
        "di"
      ],
      [
        "radi",
        "us"
      ],
      [
        "acc",
        "el"
      ],
      [
        "w",
        "or"
      ],
      [
        "n",
        "it"
      ],
      [
        "g",
        "nit"
      ],
      [
        "u",
        "de"
      ],
      [
        "ma",
        "gnit"
      ],
      [
        "magnit",
        "ude"
      ],
      [
        "ac",
        "t"
      ],
      [
        "s",
        "h"
      ],
      [
        "e",
        "v"
      ],
      [
        "ev",
        "en"
      ],
      [
        "ang",
        "le"
      ],
      [
        "a",
        "rea"
      ],
      [
        "val",
        "id"
      ],
      [
        "su",
        "re"
      ],
      [
        "pr",
        "es"
      ],
      [
        "pres",
        "sure"
      ],
      [
        "ta",
        "ge"
      ],
      [
        "vol",
        "tage"
      ],
      [
        "re",
        "sh"
      ],
      [
        "ol",
        "d"
      ],
      [
        "th",
        "resh"
      ],
      [
        "thresh",
        "old"
      ],
      [
        "f",
        "act"
      ],
      [
        "fact",
        "or"
      ],
      [
        "pe",
        "ra"
      ],
      [
        "te",
        "m"
      ],
      [
        "w",
        "eight"
      ],
      [
        "tu",
        "re"
      ],
      [
        "r",
        "un"
      ],
      [
        "pera",
        "ture"
      ],
      [
        "tem",
        "perature"
      ],
      [
        "d",
        "y"
      ],
      [
        "rea",
        "dy"
      ],
      [
        "co",
        "n"
      ],
      [
        "fo",
        "und"
      ],
      [
        "a",
        "v"
      ],
      [
        "av",
        "g"
      ],
      [
        "ti",
        "o"
      ],
      [
        "h",
        "as"
      ],
      [
        "tu",
        "rn"
      ],
      [
        "re",
        "turn"
      ],
      [
        "n",
        "ing"
      ],
      [
        "run",
        "ning"
      ],
      [
        "re",
        "q"
      ],
      [
        "ap",
        "pro"
      ],
      [
        "appro",
        "x"
      ],
      [
        "f",
        "req"
      ],
      [
        "str",
        "ing"
      ],
      [
        "f",
        "un"
      ],
      [
        "en",
        "t"
      ],
      [
        "u",
        "me"
      ],
      [
        "vol",
        "ume"
      ],
      [
        "o",
        "city"
      ],
      [
        "vel",
        "ocity"
      ],
      [
        "r",
        "c"
      ],
      [
        "ra",
        "tio"
      ],
      [
        "pe",
        "rc"
      ],
      [
        "perc",
        "ent"
      ],
      [
        "e",
        "c"
      ],
      [
        "c",
        "h"
      ],
      [
        "l",
        "a"
      ],
      [
        "is",
        "t"
      ],
      [
        "n",
        "s"
      ],
      [
        "d",
        "ist"
      ],
      [
        "ti",
        "ve"
      ],
      [
        "ch",
        "ec"
      ],
      [
        "ac",
        "tive"
      ],
      [
        "a",
        "ble"
      ],
      [
        "i",
        "ble"
      ],
      [
        "v",
        "is"
      ],
      [
        "vis",
        "ible"
      ],
      [
        "en",
        "able"
      ],
      [
        "enable",
        "d"
      ],
      [
        "ke",
        "d"
      ],
      [
        "chec",
        "ked"
      ],
      [
        "it",
        "i"
      ],
      [
        "pos",
        "iti"
      ],
      [
        "positi",
        "ve"
      ],
      [
        "f",
        "la"
      ],
      [
        "fla",
        "g"
      ],
      [
        "r",
        "me"
      ],
      [
        "fi",
        "rme"
      ],
      [
        "con",
        "firme"
      ],
      [
        "confirme",
        "d"
      ],
      [
        "r",
        "o"
      ],
      [
        "a",
        "ta"
      ],
      [
        "t",
        "ing"
      ],
      [
        "me",
        "an"
      ],
      [
        "val",
        "ue"
      ],
      [
        "p",
        "a"
      ],
      [
        "re",
        "e"
      ],
      [
        "g",
        "ree"
      ],
      [
        "gree",
        "ting"
      ],
      [
        "1",
        "3"
      ],
      [
        "m",
        "u"
      ],
      [
        "1",
        "9"
      ],
      [
        "s",
        "t"
      ],
      [
        "1",
        "8"
      ],
      [
        "c",
        "a"
      ],
      [
        "1",
        "2"
      ],
      [
        "e",
        "fix"
      ],
      [
        "pr",
        "efix"
      ],
      [
        "1",
        "1"
      ],
      [
        "1",
        "4"
      ],
      [
        "1",
        "5"
      ],
      [
        "te",
        "st"
      ],
      [
        "tu",
        "s"
      ],
      [
        "sta",
        "tus"
      ],
      [
        "pa",
        "th"
      ],
      [
        "1",
        "6"
      ],
      [
        "r",
        "y"
      ],
      [
        "p",
        "ut"
      ],
      [
        "q",
        "ue"
      ],
      [
        "ta",
        "g"
      ],
      [
        "que",
        "ry"
      ],
      [
        "o",
        "ut"
      ],
      [
        "out",
        "put"
      ],
      [
        "l",
        "in"
      ],
      [
        "ba",
        "r"
      ],
      [
        "lin",
        "e"
      ],
      [
        "1",
        "7"
      ],
      [
        "wor",
        "d"
      ],
      [
        "in",
        "fo"
      ],
      [
        "l",
        "ang"
      ],
      [
        "u",
        "age"
      ],
      [
        "lang",
        "uage"
      ],
      [
        "e",
        "r"
      ],
      [
        "ba",
        "z"
      ],
      [
        "q",
        "u"
      ],
      [
        "el",
        "lo"
      ],
      [
        "mu",
        "fi"
      ],
      [
        "h",
        "ello"
      ],
      [
        "qu",
        "x"
      ],
      [
        "d",
        "ata"
      ],
      [
        "le",
        "a"
      ],
      [
        "lea",
        "f"
      ],
      [
        "k",
        "en"
      ],
      [
        "l",
        "ab"
      ],
      [
        "to",
        "ken"
      ],
      [
        "lab",
        "el"
      ],
      [
        "co",
        "de"
      ],
      [
        "b",
        "u"
      ],
      [
        "l",
        "d"
      ],
      [
        "fo",
        "o"
      ],
      [
        "no",
        "de"
      ],
      [
        "f",
        "fix"
      ],
      [
        "su",
        "ffix"
      ],
      [
        "2",
        "0"
      ],
      [
        "s",
        "c"
      ],
      [
        "7",
        "3"
      ],
      [
        "4",
        "7"
      ],
      [
        "5",
        "0"
      ],
      [
        "r",
        "or"
      ],
      [
        "er",
        "ror"
      ],
      [
        "5",
        "5"
      ],
      [
        "x",
        "t"
      ],
      [
        "de",
        "sc"
      ],
      [
        "o",
        "t"
      ],
      [
        "ro",
        "ot"
      ],
      [
        "te",
        "xt"
      ],
      [
        "2",
        "1"
      ],
      [
        "9",
        "4"
      ],
      [
        "2",
        "8"
      ],
      [
        "5",
        "2"
      ],
      [
        "8",
        "4"
      ],
      [
        "bu",
        "g"
      ],
      [
        "3",
        "6"
      ],
      [
        "4",
        "9"
      ],
      [
        "9",
        "0"
      ],
      [
        "de",
        "bug"
      ],
      [
        "a",
        "rn"
      ],
      [
        "w",
        "arn"
      ],
      [
        "wor",
        "ld"
      ],
      [
        "warn",
        "ing"
      ],
      [
        "5",
        "6"
      ],
      [
        "7",
        "7"
      ],
      [
        "4",
        "3"
      ],
      [
        "9",
        "5"
      ],
      [
        "te",
        "g"
      ],
      [
        "9",
        "6"
      ],
      [
        "4",
        "4"
      ],
      [
        "4",
        "5"
      ],
      [
        "7",
        "9"
      ],
      [
        "8",
        "1"
      ],
      [
        "3",
        "7"
      ],
      [
        "7",
        "0"
      ],
      [
        "or",
        "y"
      ],
      [
        "ca",
        "teg"
      ],
      [
        "categ",
        "ory"
      ],
      [
        "2",
        "2"
      ],
      [
        "3",
        "3"
      ],
      [
        "2",
        "6"
      ],
      [
        "9",
        "9"
      ],
      [
        "6",
        "6"
      ],
      [
        "7",
        "1"
      ],
      [
        "3",
        "1"
      ],
      [
        "3",
        "9"
      ],
      [
        "5",
        "7"
      ],
      [
        "2",
        "4"
      ],
      [
        "6",
        "4"
      ],
      [
        "6",
        "8"
      ],
      [
        "8",
        "2"
      ],
      [
        "ms",
        "g"
      ],
      [
        "6",
        "7"
      ],
      [
        "7",
        "4"
      ],
      [
        "7",
        "6"
      ],
      [
        "8",
        "3"
      ],
      [
        "9",
        "8"
      ],
      [
        "6",
        "2"
      ],
      [
        "7",
        "8"
      ],
      [
        "9",
        "2"
      ],
      [
        "2",
        "7"
      ],
      [
        "8",
        "7"
      ],
      [
        "9",
        "1"
      ],
      [
        "2",
        "9"
      ],
      [
        "9",
        "7"
      ],
      [
        "3",
        "5"
      ],
      [
        "6",
        "0"
      ],
      [
        "5",
        "3"
      ],
      [
        "3",
        "0"
      ],
      [
        "2",
        "5"
      ],
      [
        "7",
        "2"
      ],
      [
        "8",
        "8"
      ],
      [
        "6",
        "9"
      ],
      [
        "6",
        "1"
      ],
      [
        "5",
        "4"
      ],
      [
        "5",
        "9"
      ],
      [
        "3",
        "4"
      ],
      [
        "3",
        "8"
      ],
      [
        "8",
        "6"
      ],
      [
        "5",
        "1"
      ],
      [
        "t",
        "it"
      ],
      [
        "tit",
        "le"
      ],
      [
        "8",
        "5"
      ],
      [
        "4",
        "2"
      ],
      [
        "4",
        "8"
      ],
      [
        "4",
        "1"
      ],
      [
        "5",
        "8"
      ],
      [
        "6",
        "3"
      ],
      [
        "8",
        "0"
      ],
      [
        "4",
        "0"
      ],
      [
        "9",
        "3"
      ],
      [
        "2",
        "3"
      ],
      [
        "3",
        "2"
      ],
      [
        "6",
        "5"
      ],
      [
        "7",
        "5"
      ],
      [
        "8",
        "9"
      ],
      [
        "lo",
        "g"
      ],
      [
        "4",
        "6"
      ],
      [
        "e",
        "x"
      ],
      [
        "10",
        "0"
      ],
      [
        "log",
        "10"
      ],
      [
        "max",
        "l"
      ],
      [
        "ta",
        "n"
      ],
      [
        "po",
        "w"
      ],
      [
        "q",
        "rt"
      ],
      [
        "s",
        "qrt"
      ],
      [
        "as",
        "in"
      ],
      [
        "f",
        "lo"
      ],
      [
        "flo",
        "or"
      ],
      [
        "co",
        "s"
      ],
      [
        "ex",
        "p"
      ],
      [
        "o",
        "s"
      ],
      [
        "s",
        "in"
      ],
      [
        "ata",
        "n"
      ],
      [
        "c",
        "e"
      ],
      [
        "ac",
        "os"
      ],
      [
        "log",
        "2"
      ],
      [
        "min",
        "l"
      ],
      [
        "ro",
        "und"
      ],
      [
        "ran",
        "d"
      ],
      [
        "ce",
        "il"
      ],
      [
        "T",
        "es"
      ],
      [
        "Tes",
        "t"
      ],
      [
        "t",
        "in"
      ],
      [
        "con",
        "tin"
      ],
      [
        "contin",
        "ue"
      ],
      [
        "m",
        "p"
      ],
      [
        "ca",
        "l"
      ],
      [
        "a",
        "te"
      ],
      [
        "b",
        "rea"
      ],
      [
        "brea",
        "k"
      ],
      [
        "l",
        "y"
      ],
      [
        "u",
        "te"
      ],
      [
        "a",
        "r"
      ],
      [
        "o",
        "p"
      ],
      [
        "p",
        "ly"
      ],
      [
        "fo",
        "r"
      ],
      [
        "l",
        "l"
      ],
      [
        "ct",
        "or"
      ],
      [
        "la",
        "te"
      ],
      [
        "co",
        "mp"
      ],
      [
        "L",
        "o"
      ],
      [
        "w",
        "it"
      ],
      [
        "ve",
        "ctor"
      ],
      [
        "l",
        "ti"
      ],
      [
        "A",
        "M"
      ],
      [
        "G",
        "R"
      ],
      [
        "O",
        "GR"
      ],
      [
        "P",
        "R"
      ],
      [
        "OGR",
        "AM"
      ],
      [
        "PR",
        "OGRAM"
      ],
      [
        "ge",
        "t"
      ],
      [
        "a",
        "d"
      ],
      [
        "m",
        "pa"
      ],
      [
        "ma",
        "ll"
      ],
      [
        "su",
        "b"
      ],
      [
        "di",
        "v"
      ],
      [
        "ad",
        "d"
      ],
      [
        "te",
        "d"
      ],
      [
        "sta",
        "n"
      ],
      [
        "i",
        "de"
      ],
      [
        "co",
        "mpa"
      ],
      [
        "an",
        "s"
      ],
      [
        "lo",
        "op"
      ],
      [
        "mu",
        "lti"
      ],
      [
        "compa",
        "re"
      ],
      [
        "C",
        "o"
      ],
      [
        "f",
        "in"
      ],
      [
        "tr",
        "ans"
      ],
      [
        "cal",
        "c"
      ],
      [
        "for",
        "m"
      ],
      [
        "div",
        "ide"
      ],
      [
        "multi",
        "ply"
      ],
      [
        "trans",
        "form"
      ],
      [
        "u",
        "m"
      ],
      [
        "stan",
        "t"
      ],
      [
        "u",
        "mu"
      ],
      [
        "tr",
        "act"
      ],
      [
        "ap",
        "ply"
      ],
      [
        "sub",
        "tract"
      ],
      [
        "ve",
        "c"
      ],
      [
        "lo",
        "t"
      ],
      [
        "t",
        "te"
      ],
      [
        "acc",
        "umu"
      ],
      [
        "valid",
        "ate"
      ],
      [
        "comp",
        "ute"
      ],
      [
        "Lo",
        "cal"
      ],
      [
        "tte",
        "rn"
      ],
      [
        "accumu",
        "late"
      ],
      [
        "a",
        "l"
      ],
      [
        "s",
        "lot"
      ],
      [
        "lo",
        "cal"
      ],
      [
        "wit",
        "h"
      ],
      [
        "fin",
        "d"
      ],
      [
        "o",
        "o"
      ],
      [
        "te",
        "r"
      ],
      [
        "pro",
        "cess"
      ],
      [
        "ec",
        "ute"
      ],
      [
        "ex",
        "ecute"
      ],
      [
        "calc",
        "u"
      ],
      [
        "L",
        "O"
      ],
      [
        "o",
        "u"
      ],
      [
        "no",
        "r"
      ],
      [
        "chec",
        "k"
      ],
      [
        "d",
        "ate"
      ],
      [
        "p",
        "date"
      ],
      [
        "u",
        "pdate"
      ],
      [
        "nor",
        "ma"
      ],
      [
        "int",
        "er"
      ],
      [
        "li",
        "ze"
      ],
      [
        "tio",
        "n"
      ],
      [
        "norma",
        "lize"
      ],
      [
        "inter",
        "p"
      ],
      [
        "S",
        "mall"
      ],
      [
        "il",
        "d"
      ],
      [
        "ol",
        "ate"
      ],
      [
        "bu",
        "ild"
      ],
      [
        "interp",
        "olate"
      ],
      [
        "A",
        "L"
      ],
      [
        "E",
        "T"
      ],
      [
        "l",
        "f"
      ],
      [
        "m",
        "ent"
      ],
      [
        "se",
        "lf"
      ],
      [
        "con",
        "stant"
      ],
      [
        "tio",
        "ns"
      ],
      [
        "calcu",
        "late"
      ],
      [
        "ve",
        "rt"
      ],
      [
        "con",
        "vert"
      ],
      [
        "ar",
        "r"
      ],
      [
        "O",
        "P"
      ],
      [
        "c",
        "la"
      ],
      [
        "ou",
        "ld"
      ],
      [
        "cla",
        "mp"
      ],
      [
        "h",
        "a"
      ],
      [
        "p",
        "us"
      ],
      [
        "or",
        "t"
      ],
      [
        "ran",
        "ge"
      ],
      [
        "pus",
        "h"
      ],
      [
        "S",
        "T"
      ],
      [
        "f",
        "ro"
      ],
      [
        "o",
        "n"
      ],
      [
        "ma",
        "p"
      ],
      [
        "ti",
        "m"
      ],
      [
        "ne",
        "r"
      ],
      [
        "sh",
        "ould"
      ],
      [
        "fro",
        "m"
      ],
      [
        "comp",
        "le"
      ],
      [
        "ttern",
        "s"
      ],
      [
        "R",
        "e"
      ],
      [
        "es",
        "ted"
      ],
      [
        "coun",
        "ter"
      ],
      [
        "Local",
        "s"
      ],
      [
        "constant",
        "s"
      ],
      [
        "u",
        "se"
      ],
      [
        "in",
        "ner"
      ],
      [
        "ra",
        "y"
      ],
      [
        "mp",
        "le"
      ],
      [
        "G",
        "ET"
      ],
      [
        "s",
        "s"
      ],
      [
        "it",
        "h"
      ],
      [
        "ute",
        "r"
      ],
      [
        "Lo",
        "op"
      ],
      [
        "wit",
        "ch"
      ],
      [
        "P",
        "a"
      ],
      [
        "u",
        "mp"
      ],
      [
        "ar",
        "ray"
      ],
      [
        "op",
        "tim"
      ],
      [
        "Re",
        "sult"
      ],
      [
        "0",
        "0"
      ],
      [
        "I",
        "n"
      ],
      [
        "T",
        "h"
      ],
      [
        "a",
        "y"
      ],
      [
        "s",
        "witch"
      ],
      [
        "C",
        "O"
      ],
      [
        "S",
        "h"
      ],
      [
        "b",
        "e"
      ],
      [
        "c",
        "tion"
      ],
      [
        "n",
        "um"
      ],
      [
        "o",
        "uter"
      ],
      [
        "s",
        "mall"
      ],
      [
        "z",
        "oo"
      ],
      [
        "pera",
        "tions"
      ],
      [
        "con",
        "st"
      ],
      [
        "ro",
        "w"
      ],
      [
        "pa",
        "tterns"
      ],
      [
        "B",
        "AL"
      ],
      [
        "G",
        "LO"
      ],
      [
        "e",
        "le"
      ],
      [
        "o",
        "ns"
      ],
      [
        "pr",
        "ess"
      ],
      [
        "cal",
        "l"
      ],
      [
        "GLO",
        "BAL"
      ],
      [
        "press",
        "i"
      ],
      [
        "S",
        "um"
      ],
      [
        "p",
        "ty"
      ],
      [
        "em",
        "pty"
      ],
      [
        "ize",
        "d"
      ],
      [
        "ST",
        "A"
      ],
      [
        "optim",
        "ized"
      ],
      [
        "Sh",
        "ort"
      ],
      [
        "N",
        "ested"
      ],
      [
        "O",
        "R"
      ],
      [
        "d",
        "ay"
      ],
      [
        "i",
        "z"
      ],
      [
        "Co",
        "n"
      ],
      [
        "ump",
        "s"
      ],
      [
        "E",
        "x"
      ],
      [
        "M",
        "u"
      ],
      [
        "P",
        "ha"
      ],
      [
        "a",
        "tion"
      ],
      [
        "i",
        "mple"
      ],
      [
        "n",
        "acc"
      ],
      [
        "y",
        "te"
      ],
      [
        "in",
        "it"
      ],
      [
        "bo",
        "nacc"
      ],
      [
        "tem",
        "p"
      ],
      [
        "ar",
        "ith"
      ],
      [
        "Pa",
        "ttern"
      ],
      [
        "Con",
        "stant"
      ],
      [
        "Mu",
        "lti"
      ],
      [
        "Pha",
        "se"
      ],
      [
        "bonacc",
        "i"
      ],
      [
        "E",
        "ST"
      ],
      [
        "L",
        "ar"
      ],
      [
        "N",
        "T"
      ],
      [
        "N",
        "STA"
      ],
      [
        "P",
        "L"
      ],
      [
        "T",
        "EST"
      ],
      [
        "V",
        "e"
      ],
      [
        "a",
        "rc"
      ],
      [
        "i",
        "p"
      ],
      [
        "i",
        "x"
      ],
      [
        "i",
        "able"
      ],
      [
        "i",
        "ce"
      ],
      [
        "o",
        "perations"
      ],
      [
        "o",
        "ice"
      ],
      [
        "r",
        "ip"
      ],
      [
        "x",
        "1"
      ],
      [
        "se",
        "arc"
      ],
      [
        "di",
        "um"
      ],
      [
        "ch",
        "oice"
      ],
      [
        "Tes",
        "ting"
      ],
      [
        "Th",
        "is"
      ],
      [
        "CO",
        "NSTA"
      ],
      [
        "ele",
        "ment"
      ],
      [
        "pressi",
        "ons"
      ],
      [
        "iz",
        "ation"
      ],
      [
        "Lar",
        "ge"
      ],
      [
        "Ve",
        "ctor"
      ],
      [
        "rip",
        "t"
      ],
      [
        "searc",
        "h"
      ],
      [
        "CONSTA",
        "NT"
      ],
      [
        "A",
        "r"
      ],
      [
        "C",
        "AL"
      ],
      [
        "F",
        "i"
      ],
      [
        "F",
        "un"
      ],
      [
        "S",
        "imple"
      ],
      [
        "n",
        "th"
      ],
      [
        "n",
        "ested"
      ],
      [
        "p",
        "le"
      ],
      [
        "re",
        "ment"
      ],
      [
        "or",
        "ted"
      ],
      [
        "an",
        "t"
      ],
      [
        "me",
        "ti"
      ],
      [
        "ing",
        "le"
      ],
      [
        "str",
        "u"
      ],
      [
        "sc",
        "ript"
      ],
      [
        "loop",
        "s"
      ],
      [
        "Co",
        "mple"
      ],
      [
        "local",
        "s"
      ],
      [
        "LO",
        "OP"
      ],
      [
        "LO",
        "CAL"
      ],
      [
        "comple",
        "te"
      ],
      [
        "meti",
        "c"
      ],
      [
        "M",
        "PL"
      ],
      [
        "O",
        "p"
      ],
      [
        "V",
        "ar"
      ],
      [
        "a",
        "t"
      ],
      [
        "b",
        "yte"
      ],
      [
        "c",
        "mp"
      ],
      [
        "c",
        "rement"
      ],
      [
        "e",
        "d"
      ],
      [
        "n",
        "ment"
      ],
      [
        "r",
        "ge"
      ],
      [
        "t",
        "p"
      ],
      [
        "x",
        "2"
      ],
      [
        "me",
        "ss"
      ],
      [
        "fi",
        "bonacci"
      ],
      [
        "ig",
        "nment"
      ],
      [
        "ht",
        "tp"
      ],
      [
        "result",
        "1"
      ],
      [
        "result",
        "2"
      ],
      [
        "la",
        "tions"
      ],
      [
        "la",
        "rge"
      ],
      [
        "Co",
        "un"
      ],
      [
        "Multi",
        "ple"
      ],
      [
        "search",
        "ing"
      ],
      [
        "Fun",
        "ction"
      ],
      [
        "mess",
        "age"
      ],
      [
        "E",
        "n"
      ],
      [
        "F",
        "oo"
      ],
      [
        "H",
        "OR"
      ],
      [
        "J",
        "umps"
      ],
      [
        "M",
        "ess"
      ],
      [
        "S",
        "HOR"
      ],
      [
        "V",
        "al"
      ],
      [
        "c",
        "2"
      ],
      [
        "c",
        "rea"
      ],
      [
        "e",
        "p"
      ],
      [
        "l",
        "2"
      ],
      [
        "m",
        "1"
      ],
      [
        "m",
        "2"
      ],
      [
        "m",
        "3"
      ],
      [
        "r",
        "in"
      ],
      [
        "s",
        "orted"
      ],
      [
        "s",
        "ingle"
      ],
      [
        "in",
        "al"
      ],
      [
        "var",
        "iable"
      ],
      [
        "th",
        "er"
      ],
      [
        "pe",
        "ct"
      ],
      [
        "pe",
        "rin"
      ],
      [
        "me",
        "dium"
      ],
      [
        "ti",
        "me"
      ],
      [
        "index",
        "ing"
      ],
      [
        "lo",
        "ba"
      ],
      [
        "as",
        "s"
      ],
      [
        "con",
        "d"
      ],
      [
        "test",
        "Locals"
      ],
      [
        "qu",
        "al"
      ],
      [
        "ex",
        "pressions"
      ],
      [
        "ar",
        "d"
      ],
      [
        "vec",
        "1"
      ],
      [
        "vec",
        "2"
      ],
      [
        "ith",
        "metic"
      ],
      [
        "Pa",
        "tterns"
      ],
      [
        "ix",
        "ed"
      ],
      [
        "element",
        "s"
      ],
      [
        "Ar",
        "ithmetic"
      ],
      [
        "Comple",
        "te"
      ],
      [
        "Coun",
        "ter"
      ],
      [
        "En",
        "d"
      ],
      [
        "Mess",
        "age"
      ],
      [
        "SHOR",
        "T"
      ],
      [
        "perin",
        "stru"
      ],
      [
        "loba",
        "l"
      ],
      [
        "A",
        "D"
      ],
      [
        "A",
        "c"
      ],
      [
        "A",
        "ccess"
      ],
      [
        "A",
        "ll"
      ],
      [
        "C",
        "rea"
      ],
      [
        "E",
        "mp"
      ],
      [
        "F",
        "or"
      ],
      [
        "F",
        "inal"
      ],
      [
        "M",
        "ixed"
      ],
      [
        "O",
        "perations"
      ],
      [
        "a",
        "ll"
      ],
      [
        "g",
        "ra"
      ],
      [
        "i",
        "c"
      ],
      [
        "j",
        "umps"
      ],
      [
        "l",
        "ist"
      ],
      [
        "m",
        "po"
      ],
      [
        "o",
        "ne"
      ],
      [
        "p",
        "ha"
      ],
      [
        "r",
        "is"
      ],
      [
        "r",
        "st"
      ],
      [
        "w",
        "o"
      ],
      [
        "x",
        "3"
      ],
      [
        "do",
        "n"
      ],
      [
        "fi",
        "b"
      ],
      [
        "bool",
        "1"
      ],
      [
        "bool",
        "2"
      ],
      [
        "rank",
        "3"
      ],
      [
        "result",
        "3"
      ],
      [
        "wor",
        "k"
      ],
      [
        "20",
        "0"
      ],
      [
        "ar",
        "g"
      ],
      [
        "mpa",
        "ris"
      ],
      [
        "add",
        "Small"
      ],
      [
        "Co",
        "mpo"
      ],
      [
        "Co",
        "mparis"
      ],
      [
        "al",
        "pha"
      ],
      [
        "calcu",
        "lations"
      ],
      [
        "ET",
        "E"
      ],
      [
        "tim",
        "ization"
      ],
      [
        "CO",
        "MPL"
      ],
      [
        "const",
        "1"
      ],
      [
        "const",
        "2"
      ],
      [
        "call",
        "s"
      ],
      [
        "Constant",
        "s"
      ],
      [
        "Fi",
        "rst"
      ],
      [
        "Op",
        "timization"
      ],
      [
        "crea",
        "ted"
      ],
      [
        "perinstru",
        "ction"
      ],
      [
        "AD",
        "D"
      ],
      [
        "Emp",
        "ty"
      ],
      [
        "Compo",
        "und"
      ],
      [
        "COMPL",
        "ETE"
      ],
      [
        "A",
        "ss"
      ],
      [
        "B",
        "oo"
      ],
      [
        "D",
        "E"
      ],
      [
        "D",
        "e"
      ],
      [
        "F",
        "o"
      ],
      [
        "I",
        "N"
      ],
      [
        "I",
        "te"
      ],
      [
        "M",
        "e"
      ],
      [
        "M",
        "o"
      ],
      [
        "M",
        "an"
      ],
      [
        "O",
        "ther"
      ],
      [
        "S",
        "e"
      ],
      [
        "S",
        "ta"
      ],
      [
        "Z",
        "oo"
      ],
      [
        "a",
        "ard"
      ],
      [
        "b",
        "an"
      ],
      [
        "c",
        "1"
      ],
      [
        "c",
        "3"
      ],
      [
        "c",
        "4"
      ],
      [
        "c",
        "tions"
      ],
      [
        "d",
        "t"
      ],
      [
        "f",
        "vec"
      ],
      [
        "h",
        "ant"
      ],
      [
        "i",
        "ma"
      ],
      [
        "l",
        "0"
      ],
      [
        "l",
        "1"
      ],
      [
        "l",
        "3"
      ],
      [
        "m",
        "ou"
      ],
      [
        "m",
        "on"
      ],
      [
        "p",
        "p"
      ],
      [
        "p",
        "ac"
      ],
      [
        "p",
        "hant"
      ],
      [
        "s",
        "pac"
      ],
      [
        "t",
        "un"
      ],
      [
        "v",
        "1"
      ],
      [
        "v",
        "2"
      ],
      [
        "w",
        "ing"
      ],
      [
        "in",
        "crement"
      ],
      [
        "var",
        "k"
      ],
      [
        "re",
        "ct"
      ],
      [
        "ac",
        "cess"
      ],
      [
        "de",
        "ep"
      ],
      [
        "de",
        "mon"
      ],
      [
        "le",
        "an"
      ],
      [
        "fo",
        "x"
      ],
      [
        "el",
        "d"
      ],
      [
        "th",
        "at"
      ],
      [
        "an",
        "a"
      ],
      [
        "str",
        "ate"
      ],
      [
        "do",
        "wing"
      ],
      [
        "fi",
        "eld"
      ],
      [
        "sta",
        "tem"
      ],
      [
        "bo",
        "on"
      ],
      [
        "result",
        "4"
      ],
      [
        "result",
        "5"
      ],
      [
        "double",
        "d"
      ],
      [
        "ba",
        "boon"
      ],
      [
        "sh",
        "ort"
      ],
      [
        "ratio",
        "n"
      ],
      [
        "ca",
        "t"
      ],
      [
        "12",
        "7"
      ],
      [
        "test",
        "s"
      ],
      [
        "lin",
        "spac"
      ],
      [
        "80",
        "00"
      ],
      [
        "ex",
        "pect"
      ],
      [
        "100",
        "00"
      ],
      [
        "for",
        "Sum"
      ],
      [
        "vector",
        "s"
      ],
      [
        "get",
        "Message"
      ],
      [
        "slot",
        "s"
      ],
      [
        "local",
        "Result"
      ],
      [
        "ha",
        "y"
      ],
      [
        "comple",
        "x"
      ],
      [
        "comple",
        "ted"
      ],
      [
        "optim",
        "ization"
      ],
      [
        "be",
        "ta"
      ],
      [
        "ele",
        "phant"
      ],
      [
        "pressi",
        "on"
      ],
      [
        "Crea",
        "te"
      ],
      [
        "gra",
        "ss"
      ],
      [
        "don",
        "key"
      ],
      [
        "work",
        "s"
      ],
      [
        "Ass",
        "ignment"
      ],
      [
        "Man",
        "y"
      ],
      [
        "Se",
        "cond"
      ],
      [
        "aard",
        "vark"
      ],
      [
        "ban",
        "ana"
      ],
      [
        "ima",
        "l"
      ],
      [
        "mou",
        "se"
      ],
      [
        "tun",
        "a"
      ],
      [
        "demon",
        "strate"
      ],
      [
        "statem",
        "ent"
      ],
      [
        "linspac",
        "e"
      ],
      [
        "2",
        "55"
      ],
      [
        "B",
        "as"
      ],
      [
        "B",
        "yte"
      ],
      [
        "C",
        "all"
      ],
      [
        "D",
        "ec"
      ],
      [
        "E",
        "qual"
      ],
      [
        "G",
        "lobal"
      ],
      [
        "M",
        "in"
      ],
      [
        "N",
        "il"
      ],
      [
        "N",
        "es"
      ],
      [
        "O",
        "uter"
      ],
      [
        "R",
        "T"
      ],
      [
        "S",
        "tr"
      ],
      [
        "S",
        "ET"
      ],
      [
        "S",
        "ha"
      ],
      [
        "a",
        "in"
      ],
      [
        "a",
        "me"
      ],
      [
        "c",
        "0"
      ],
      [
        "c",
        "5"
      ],
      [
        "c",
        "l"
      ],
      [
        "d",
        "S"
      ],
      [
        "e",
        "qual"
      ],
      [
        "f",
        "u"
      ],
      [
        "f",
        "ter"
      ],
      [
        "g",
        "lobal"
      ],
      [
        "i",
        "r"
      ],
      [
        "i",
        "ch"
      ],
      [
        "j",
        "ump"
      ],
      [
        "l",
        "ly"
      ],
      [
        "o",
        "me"
      ],
      [
        "r",
        "1"
      ],
      [
        "r",
        "2"
      ],
      [
        "s",
        "ort"
      ],
      [
        "t",
        "wo"
      ],
      [
        "re",
        "s"
      ],
      [
        "tr",
        "ix"
      ],
      [
        "de",
        "x"
      ],
      [
        "de",
        "fin"
      ],
      [
        "su",
        "perinstruction"
      ],
      [
        "su",
        "pp"
      ],
      [
        "fa",
        "ile"
      ],
      [
        "ra",
        "ting"
      ],
      [
        "ma",
        "trix"
      ],
      [
        "th",
        "e"
      ],
      [
        "wh",
        "os"
      ],
      [
        "wh",
        "ich"
      ],
      [
        "po",
        "p"
      ],
      [
        "sum",
        "1"
      ],
      [
        "rt",
        "ing"
      ],
      [
        "ve",
        "r"
      ],
      [
        "success",
        "fu"
      ],
      [
        "item",
        "s"
      ],
      [
        "us",
        "ing"
      ],
      [
        "mu",
        "l"
      ],
      [
        "test",
        "Short"
      ],
      [
        "code",
        "s"
      ],
      [
        "teg",
        "ration"
      ],
      [
        "100",
        "0"
      ],
      [
        "op",
        "codes"
      ],
      [
        "local",
        "1"
      ],
      [
        "local",
        "2"
      ],
      [
        "arr",
        "2"
      ],
      [
        "Re",
        "turn"
      ],
      [
        "use",
        "s"
      ],
      [
        "Loop",
        "s"
      ],
      [
        "In",
        "ner"
      ],
      [
        "In",
        "dex"
      ],
      [
        "In",
        "tegration"
      ],
      [
        "Th",
        "ir"
      ],
      [
        "row",
        "1"
      ],
      [
        "row",
        "2"
      ],
      [
        "row",
        "3"
      ],
      [
        "call",
        "1"
      ],
      [
        "call",
        "2"
      ],
      [
        "STA",
        "RT"
      ],
      [
        "Ex",
        "pressions"
      ],
      [
        "arith",
        "1"
      ],
      [
        "arith",
        "2"
      ],
      [
        "Fi",
        "bonacci"
      ],
      [
        "Var",
        "iable"
      ],
      [
        "cmp",
        "2"
      ],
      [
        "ass",
        "ignment"
      ],
      [
        "Ac",
        "tive"
      ],
      [
        "arg",
        "s"
      ],
      [
        "Comparis",
        "ons"
      ],
      [
        "Boo",
        "lean"
      ],
      [
        "Ite",
        "rating"
      ],
      [
        "Me",
        "dium"
      ],
      [
        "Mo",
        "re"
      ],
      [
        "Sta",
        "rting"
      ],
      [
        "statement",
        "s"
      ],
      [
        "Bas",
        "ic"
      ],
      [
        "Byte",
        "code"
      ],
      [
        "Call",
        "s"
      ],
      [
        "Min",
        "imal"
      ],
      [
        "Str",
        "ing"
      ],
      [
        "Sha",
        "dowing"
      ],
      [
        "cl",
        "ass"
      ],
      [
        "faile",
        "d"
      ],
      [
        "successfu",
        "lly"
      ],
      [
        "testShort",
        "Jumps"
      ],
      [
        "Thir",
        "d"
      ],
      [
        "A",
        "C"
      ],
      [
        "A",
        "no"
      ],
      [
        "A",
        "rea"
      ],
      [
        "A",
        "ve"
      ],
      [
        "A",
        "na"
      ],
      [
        "A",
        "fter"
      ],
      [
        "B",
        "U"
      ],
      [
        "C",
        "T"
      ],
      [
        "C",
        "lo"
      ],
      [
        "C",
        "al"
      ],
      [
        "D",
        "ay"
      ],
      [
        "E",
        "ach"
      ],
      [
        "E",
        "AC"
      ],
      [
        "E",
        "CT"
      ],
      [
        "F",
        "a"
      ],
      [
        "F",
        "OR"
      ],
      [
        "F",
        "IN"
      ],
      [
        "I",
        "M"
      ],
      [
        "I",
        "d"
      ],
      [
        "I",
        "PL"
      ],
      [
        "I",
        "MPL"
      ],
      [
        "J",
        "ump"
      ],
      [
        "L",
        "T"
      ],
      [
        "M",
        "U"
      ],
      [
        "M",
        "IN"
      ],
      [
        "N",
        "ame"
      ],
      [
        "O",
        "ne"
      ],
      [
        "P",
        "ro"
      ],
      [
        "S",
        "u"
      ],
      [
        "S",
        "lot"
      ],
      [
        "S",
        "witch"
      ],
      [
        "S",
        "ingle"
      ],
      [
        "S",
        "IMPL"
      ],
      [
        "T",
        "wo"
      ],
      [
        "V",
        "ECT"
      ],
      [
        "a",
        "m"
      ],
      [
        "b",
        "y"
      ],
      [
        "b",
        "in"
      ],
      [
        "c",
        "6"
      ],
      [
        "c",
        "7"
      ],
      [
        "c",
        "8"
      ],
      [
        "c",
        "9"
      ],
      [
        "c",
        "u"
      ],
      [
        "c",
        "10"
      ],
      [
        "c",
        "and"
      ],
      [
        "c",
        "ture"
      ],
      [
        "c",
        "13"
      ],
      [
        "c",
        "12"
      ],
      [
        "c",
        "11"
      ],
      [
        "c",
        "14"
      ],
      [
        "c",
        "15"
      ],
      [
        "c",
        "16"
      ],
      [
        "c",
        "lea"
      ],
      [
        "c",
        "20"
      ],
      [
        "c",
        "100"
      ],
      [
        "c",
        "ted"
      ],
      [
        "c",
        "umu"
      ],
      [
        "c",
        "Dec"
      ],
      [
        "d",
        "ard"
      ],
      [
        "e",
        "re"
      ],
      [
        "e",
        "rc"
      ],
      [
        "f",
        "ra"
      ],
      [
        "g",
        "1"
      ],
      [
        "g",
        "2"
      ],
      [
        "g",
        "3"
      ],
      [
        "g",
        "4"
      ],
      [
        "g",
        "5"
      ],
      [
        "g",
        "rea"
      ],
      [
        "g",
        "ic"
      ],
      [
        "g",
        "one"
      ],
      [
        "i",
        "se"
      ],
      [
        "l",
        "4"
      ],
      [
        "l",
        "5"
      ],
      [
        "l",
        "6"
      ],
      [
        "l",
        "7"
      ],
      [
        "l",
        "10"
      ],
      [
        "m",
        "0"
      ],
      [
        "n",
        "t"
      ],
      [
        "n",
        "es"
      ],
      [
        "o",
        "na"
      ],
      [
        "s",
        "is"
      ],
      [
        "s",
        "ig"
      ],
      [
        "s",
        "av"
      ],
      [
        "s",
        "day"
      ],
      [
        "s",
        "iz"
      ],
      [
        "t",
        "or"
      ],
      [
        "w",
        "il"
      ],
      [
        "w",
        "es"
      ],
      [
        "x",
        "0"
      ],
      [
        "x",
        "4"
      ],
      [
        "x",
        "5"
      ],
      [
        "in",
        "stan"
      ],
      [
        "in",
        "fra"
      ],
      [
        "if",
        "y"
      ],
      [
        "re",
        "f"
      ],
      [
        "re",
        "t"
      ],
      [
        "is",
        "Active"
      ],
      [
        "nil",
        "Val"
      ],
      [
        "de",
        "l"
      ],
      [
        "true",
        "Val"
      ],
      [
        "false",
        "Val"
      ],
      [
        "ta",
        "tion"
      ],
      [
        "ra",
        "ge"
      ],
      [
        "te",
        "cted"
      ],
      [
        "ma",
        "n"
      ],
      [
        "ma",
        "ke"
      ],
      [
        "th",
        "an"
      ],
      [
        "pe",
        "d"
      ],
      [
        "str",
        "1"
      ],
      [
        "str",
        "2"
      ],
      [
        "str",
        "3"
      ],
      [
        "id",
        "ate"
      ],
      [
        "pos",
        "t"
      ],
      [
        "pro",
        "tected"
      ],
      [
        "sum",
        "2"
      ],
      [
        "offset",
        "4"
      ],
      [
        "result",
        "6"
      ],
      [
        "result",
        "7"
      ],
      [
        "result",
        "8"
      ],
      [
        "result",
        "10"
      ],
      [
        "ne",
        "w"
      ],
      [
        "ne",
        "xt"
      ],
      [
        "remainder",
        "6"
      ],
      [
        "sco",
        "pe"
      ],
      [
        "di",
        "rect"
      ],
      [
        "area",
        "4"
      ],
      [
        "return",
        "Local"
      ],
      [
        "return",
        "Small"
      ],
      [
        "return",
        "Large"
      ],
      [
        "fun",
        "ction"
      ],
      [
        "fun",
        "ctions"
      ],
      [
        "ch",
        "ain"
      ],
      [
        "la",
        "tor"
      ],
      [
        "ist",
        "s"
      ],
      [
        "iti",
        "on"
      ],
      [
        "iti",
        "ona"
      ],
      [
        "value",
        "1"
      ],
      [
        "value",
        "2"
      ],
      [
        "value",
        "3"
      ],
      [
        "value",
        "4"
      ],
      [
        "value",
        "5"
      ],
      [
        "pa",
        "ttern"
      ],
      [
        "ca",
        "se"
      ],
      [
        "test",
        "Small"
      ],
      [
        "test",
        "Loop"
      ],
      [
        "test",
        "In"
      ],
      [
        "test",
        "Multi"
      ],
      [
        "test",
        "Mixed"
      ],
      [
        "test",
        "Compound"
      ],
      [
        "test",
        "Assignment"
      ],
      [
        "test",
        "Many"
      ],
      [
        "test",
        "Shadowing"
      ],
      [
        "lin",
        "ked"
      ],
      [
        "foo",
        "2"
      ],
      [
        "ex",
        "pression"
      ],
      [
        "ex",
        "erc"
      ],
      [
        "ex",
        "ists"
      ],
      [
        "ly",
        "sis"
      ],
      [
        "Lo",
        "gic"
      ],
      [
        "sub",
        "Result"
      ],
      [
        "div",
        "Result"
      ],
      [
        "add",
        "Result"
      ],
      [
        "fin",
        "al"
      ],
      [
        "vec",
        "3"
      ],
      [
        "local",
        "3"
      ],
      [
        "local",
        "Sum"
      ],
      [
        "local",
        "Pro"
      ],
      [
        "AL",
        "L"
      ],
      [
        "constant",
        "Test"
      ],
      [
        "calculate",
        "Area"
      ],
      [
        "comple",
        "x1"
      ],
      [
        "comple",
        "x2"
      ],
      [
        "inner",
        "Var"
      ],
      [
        "In",
        "crement"
      ],
      [
        "Th",
        "ree"
      ],
      [
        "Sh",
        "ould"
      ],
      [
        "outer",
        "Var"
      ],
      [
        "const",
        "3"
      ],
      [
        "const",
        "Result"
      ],
      [
        "call",
        "3"
      ],
      [
        "day",
        "Name"
      ],
      [
        "Ex",
        "it"
      ],
      [
        "Ex",
        "pect"
      ],
      [
        "Ex",
        "pression"
      ],
      [
        "temp",
        "1"
      ],
      [
        "temp",
        "2"
      ],
      [
        "temp",
        "3"
      ],
      [
        "arith",
        "3"
      ],
      [
        "arith",
        "metic"
      ],
      [
        "Ar",
        "ray"
      ],
      [
        "stru",
        "cture"
      ],
      [
        "Comple",
        "x"
      ],
      [
        "LOOP",
        "S"
      ],
      [
        "Op",
        "s"
      ],
      [
        "cmp",
        "1"
      ],
      [
        "cmp",
        "3"
      ],
      [
        "http",
        "s"
      ],
      [
        "message",
        "Id"
      ],
      [
        "c2",
        "55"
      ],
      [
        "Ac",
        "cumu"
      ],
      [
        "fib",
        "5"
      ],
      [
        "fib",
        "6"
      ],
      [
        "Comparis",
        "on"
      ],
      [
        "DE",
        "BU"
      ],
      [
        "DE",
        "FIN"
      ],
      [
        "De",
        "ep"
      ],
      [
        "Fo",
        "reach"
      ],
      [
        "Fo",
        "und"
      ],
      [
        "deep",
        "Result"
      ],
      [
        "deep",
        "Nes"
      ],
      [
        "10000",
        "00"
      ],
      [
        "complex",
        "A"
      ],
      [
        "complex",
        "B"
      ],
      [
        "global",
        "Sum"
      ],
      [
        "defin",
        "ition"
      ],
      [
        "supp",
        "orted"
      ],
      [
        "pop",
        "ped"
      ],
      [
        "mul",
        "Result"
      ],
      [
        "Ano",
        "ther"
      ],
      [
        "Ave",
        "rage"
      ],
      [
        "Ana",
        "lysis"
      ],
      [
        "Clo",
        "sure"
      ],
      [
        "Cal",
        "cu"
      ],
      [
        "EAC",
        "H"
      ],
      [
        "FOR",
        "EACH"
      ],
      [
        "IM",
        "AL"
      ],
      [
        "LT",
        "IPL"
      ],
      [
        "MU",
        "LTIPL"
      ],
      [
        "MIN",
        "IMAL"
      ],
      [
        "Su",
        "perinstruction"
      ],
      [
        "Slot",
        "s"
      ],
      [
        "SIMPL",
        "E"
      ],
      [
        "VECT",
        "OR"
      ],
      [
        "am",
        "t"
      ],
      [
        "cand",
        "idate"
      ],
      [
        "clea",
        "r"
      ],
      [
        "ere",
        "nt"
      ],
      [
        "grea",
        "ter"
      ],
      [
        "sig",
        "ma"
      ],
      [
        "sav",
        "es"
      ],
      [
        "siz",
        "es"
      ],
      [
        "wil",
        "l"
      ],
      [
        "wes",
        "ome"
      ],
      [
        "instan",
        "ce"
      ],
      [
        "infra",
        "structure"
      ],
      [
        "make",
        "Counter"
      ],
      [
        "itiona",
        "l"
      ],
      [
        "testSmall",
        "Locals"
      ],
      [
        "testIn",
        "cDec"
      ],
      [
        "testMulti",
        "Ops"
      ],
      [
        "testMixed",
        "Locals"
      ],
      [
        "testMany",
        "Locals"
      ],
      [
        "exerc",
        "ise"
      ],
      [
        "localPro",
        "duct"
      ],
      [
        "Accumu",
        "lator"
      ],
      [
        "DEBU",
        "G"
      ],
      [
        "DEFIN",
        "E"
      ],
      [
        "deepNes",
        "t"
      ],
      [
        "Calcu",
        "lations"
      ],
      [
        "0",
        "5"
      ],
      [
        "A",
        "N"
      ],
      [
        "A",
        "pp"
      ],
      [
        "A",
        "wesome"
      ],
      [
        "B",
        "e"
      ],
      [
        "B",
        "el"
      ],
      [
        "C",
        "h"
      ],
      [
        "D",
        "i"
      ],
      [
        "D",
        "o"
      ],
      [
        "D",
        "iff"
      ],
      [
        "D",
        "ou"
      ],
      [
        "E",
        "ar"
      ],
      [
        "F",
        "r"
      ],
      [
        "F",
        "lo"
      ],
      [
        "G",
        "oo"
      ],
      [
        "H",
        "ello"
      ],
      [
        "I",
        "nit"
      ],
      [
        "I",
        "ns"
      ],
      [
        "J",
        "U"
      ],
      [
        "M",
        "P"
      ],
      [
        "M",
        "a"
      ],
      [
        "M",
        "on"
      ],
      [
        "N",
        "O"
      ],
      [
        "N",
        "o"
      ],
      [
        "O",
        "r"
      ],
      [
        "S",
        "a"
      ],
      [
        "S",
        "c"
      ],
      [
        "S",
        "t"
      ],
      [
        "S",
        "ize"
      ],
      [
        "S",
        "und"
      ],
      [
        "S",
        "tan"
      ],
      [
        "S",
        "ome"
      ],
      [
        "T",
        "r"
      ],
      [
        "T",
        "ue"
      ],
      [
        "U",
        "n"
      ],
      [
        "U",
        "s"
      ],
      [
        "V",
        "er"
      ],
      [
        "W",
        "e"
      ],
      [
        "W",
        "h"
      ],
      [
        "W",
        "or"
      ],
      [
        "W",
        "ed"
      ],
      [
        "Y",
        "ou"
      ],
      [
        "a",
        "g"
      ],
      [
        "a",
        "va"
      ],
      [
        "a",
        "ry"
      ],
      [
        "a",
        "dowing"
      ],
      [
        "a",
        "fter"
      ],
      [
        "a",
        "wesome"
      ],
      [
        "b",
        "l"
      ],
      [
        "b",
        "ra"
      ],
      [
        "b",
        "ut"
      ],
      [
        "b",
        "er"
      ],
      [
        "c",
        "it"
      ],
      [
        "c",
        "en"
      ],
      [
        "c",
        "or"
      ],
      [
        "c",
        "el"
      ],
      [
        "c",
        "an"
      ],
      [
        "c",
        "ro"
      ],
      [
        "c",
        "uses"
      ],
      [
        "d",
        "itional"
      ],
      [
        "e",
        "b"
      ],
      [
        "e",
        "ach"
      ],
      [
        "e",
        "rn"
      ],
      [
        "e",
        "ct"
      ],
      [
        "e",
        "rate"
      ],
      [
        "e",
        "av"
      ],
      [
        "e",
        "ply"
      ],
      [
        "e",
        "ration"
      ],
      [
        "f",
        "5"
      ],
      [
        "f",
        "v"
      ],
      [
        "f",
        "if"
      ],
      [
        "f",
        "resh"
      ],
      [
        "g",
        "h"
      ],
      [
        "g",
        "en"
      ],
      [
        "g",
        "ith"
      ],
      [
        "h",
        "eav"
      ],
      [
        "i",
        "o"
      ],
      [
        "i",
        "es"
      ],
      [
        "i",
        "mp"
      ],
      [
        "i",
        "al"
      ],
      [
        "i",
        "on"
      ],
      [
        "j",
        "ect"
      ],
      [
        "k",
        "now"
      ],
      [
        "m",
        "o"
      ],
      [
        "m",
        "en"
      ],
      [
        "m",
        "ixed"
      ],
      [
        "n",
        "Sum"
      ],
      [
        "n",
        "Nested"
      ],
      [
        "n",
        "Large"
      ],
      [
        "n",
        "Message"
      ],
      [
        "n",
        "Sta"
      ],
      [
        "n",
        "Expression"
      ],
      [
        "o",
        "d"
      ],
      [
        "o",
        "w"
      ],
      [
        "o",
        "pera"
      ],
      [
        "o",
        "lean"
      ],
      [
        "p",
        "age"
      ],
      [
        "p",
        "ort"
      ],
      [
        "r",
        "act"
      ],
      [
        "r",
        "day"
      ],
      [
        "r",
        "ver"
      ],
      [
        "r",
        "sday"
      ],
      [
        "s",
        "ol"
      ],
      [
        "s",
        "lo"
      ],
      [
        "s",
        "oo"
      ],
      [
        "s",
        "ame"
      ],
      [
        "t",
        "en"
      ],
      [
        "u",
        "b"
      ],
      [
        "u",
        "al"
      ],
      [
        "u",
        "tation"
      ],
      [
        "u",
        "gh"
      ],
      [
        "u",
        "rsday"
      ],
      [
        "w",
        "er"
      ],
      [
        "w",
        "eb"
      ],
      [
        "in",
        "s"
      ],
      [
        "in",
        "ste"
      ],
      [
        "var",
        "io"
      ],
      [
        "int",
        "ern"
      ],
      [
        "re",
        "co"
      ],
      [
        "re",
        "pos"
      ],
      [
        "re",
        "ss"
      ],
      [
        "re",
        "ver"
      ],
      [
        "re",
        "ject"
      ],
      [
        "il",
        "ing"
      ],
      [
        "il",
        "able"
      ],
      [
        "il",
        "ation"
      ],
      [
        "se",
        "qu"
      ],
      [
        "se",
        "rver"
      ],
      [
        "tr",
        "al"
      ],
      [
        "it",
        "or"
      ],
      [
        "it",
        "eration"
      ],
      [
        "en",
        "ce"
      ],
      [
        "de",
        "d"
      ],
      [
        "de",
        "t"
      ],
      [
        "de",
        "crement"
      ],
      [
        "su",
        "perinstru"
      ],
      [
        "fa",
        "il"
      ],
      [
        "ta",
        "ins"
      ],
      [
        "le",
        "s"
      ],
      [
        "le",
        "ct"
      ],
      [
        "le",
        "ans"
      ],
      [
        "te",
        "en"
      ],
      [
        "te",
        "ste"
      ],
      [
        "fo",
        "re"
      ],
      [
        "fo",
        "ld"
      ],
      [
        "fo",
        "cuses"
      ],
      [
        "ma",
        "th"
      ],
      [
        "or",
        "g"
      ],
      [
        "un",
        "iti"
      ],
      [
        "co",
        "m"
      ],
      [
        "th",
        "ing"
      ],
      [
        "th",
        "ro"
      ],
      [
        "th",
        "od"
      ],
      [
        "ble",
        "m"
      ],
      [
        "es",
        "n"
      ],
      [
        "min",
        "imal"
      ],
      [
        "tu",
        "rday"
      ],
      [
        "do",
        "t"
      ],
      [
        "do",
        "esn"
      ],
      [
        "fi",
        "ve"
      ],
      [
        "len",
        "t"
      ],
      [
        "ig",
        "inal"
      ],
      [
        "ap",
        "i"
      ],
      [
        "id",
        "ay"
      ],
      [
        "pro",
        "j"
      ],
      [
        "pro",
        "blem"
      ],
      [
        "rea",
        "l"
      ],
      [
        "to",
        "pi"
      ],
      [
        "age",
        "5"
      ],
      [
        "bo",
        "olean"
      ],
      [
        "item",
        "2"
      ],
      [
        "result",
        "9"
      ],
      [
        "li",
        "ke"
      ],
      [
        "li",
        "bra"
      ],
      [
        "li",
        "cit"
      ],
      [
        "ze",
        "ro"
      ],
      [
        "index",
        "7"
      ],
      [
        "index",
        "es"
      ],
      [
        "lo",
        "ad"
      ],
      [
        "diff",
        "2"
      ],
      [
        "diff",
        "erent"
      ],
      [
        "rema",
        "in"
      ],
      [
        "du",
        "les"
      ],
      [
        "key",
        "word"
      ],
      [
        "uble",
        "d"
      ],
      [
        "density",
        "7"
      ],
      [
        "radius",
        "3"
      ],
      [
        "gnit",
        "ion"
      ],
      [
        "sh",
        "adowing"
      ],
      [
        "temperature",
        "2"
      ],
      [
        "ready",
        "2"
      ],
      [
        "con",
        "tains"
      ],
      [
        "approx",
        "6"
      ],
      [
        "ratio",
        "8"
      ],
      [
        "ec",
        "k"
      ],
      [
        "iti",
        "ons"
      ],
      [
        "positi",
        "on"
      ],
      [
        "value",
        "s"
      ],
      [
        "11",
        "1"
      ],
      [
        "14",
        "15"
      ],
      [
        "55",
        "5"
      ],
      [
        "77",
        "7"
      ],
      [
        "44",
        "4"
      ],
      [
        "22",
        "2"
      ],
      [
        "33",
        "3"
      ],
      [
        "88",
        "8"
      ],
      [
        "flo",
        "at"
      ],
      [
        "exp",
        "licit"
      ],
      [
        "Test",
        "s"
      ],
      [
        "op",
        "s"
      ],
      [
        "op",
        "port"
      ],
      [
        "comp",
        "utation"
      ],
      [
        "comp",
        "ilation"
      ],
      [
        "ad",
        "ded"
      ],
      [
        "add",
        "fv"
      ],
      [
        "stan",
        "dard"
      ],
      [
        "multi",
        "ple"
      ],
      [
        "nor",
        "m"
      ],
      [
        "norma",
        "l"
      ],
      [
        "interp",
        "1"
      ],
      [
        "ort",
        "s"
      ],
      [
        "use",
        "d"
      ],
      [
        "In",
        "valid"
      ],
      [
        "In",
        "active"
      ],
      [
        "Th",
        "ursday"
      ],
      [
        "num",
        "ber"
      ],
      [
        "Con",
        "ditional"
      ],
      [
        "Ex",
        "cel"
      ],
      [
        "imple",
        "ment"
      ],
      [
        "imple",
        "men"
      ],
      [
        "TEST",
        "S"
      ],
      [
        "Fun",
        "ctions"
      ],
      [
        "at",
        "Vector"
      ],
      [
        "byte",
        "s"
      ],
      [
        "byte",
        "code"
      ],
      [
        "http",
        "bin"
      ],
      [
        "large",
        "1"
      ],
      [
        "large",
        "2"
      ],
      [
        "large",
        "3"
      ],
      [
        "large",
        "r"
      ],
      [
        "Coun",
        "t"
      ],
      [
        "crea",
        "te"
      ],
      [
        "variable",
        "s"
      ],
      [
        "cond",
        "itional"
      ],
      [
        "cond",
        "itions"
      ],
      [
        "Access",
        "ing"
      ],
      [
        "Crea",
        "ting"
      ],
      [
        "gra",
        "de"
      ],
      [
        "COMPLETE",
        "D"
      ],
      [
        "Boo",
        "leans"
      ],
      [
        "De",
        "bug"
      ],
      [
        "De",
        "eply"
      ],
      [
        "Ite",
        "rate"
      ],
      [
        "Me",
        "thod"
      ],
      [
        "Mo",
        "dules"
      ],
      [
        "rect",
        "ly"
      ],
      [
        "demonstrate",
        "s"
      ],
      [
        "Dec",
        "rement"
      ],
      [
        "Nes",
        "ting"
      ],
      [
        "global",
        "s"
      ],
      [
        "jump",
        "1"
      ],
      [
        "jump",
        "2"
      ],
      [
        "defin",
        "e"
      ],
      [
        "supp",
        "ort"
      ],
      [
        "ver",
        "ify"
      ],
      [
        "Return",
        "s"
      ],
      [
        "Fa",
        "lse"
      ],
      [
        "Fa",
        "iling"
      ],
      [
        "bin",
        "ary"
      ],
      [
        "nes",
        "ting"
      ],
      [
        "nes",
        "day"
      ],
      [
        "ref",
        "ract"
      ],
      [
        "ref",
        "lect"
      ],
      [
        "man",
        "y"
      ],
      [
        "man",
        "ual"
      ],
      [
        "chain",
        "s"
      ],
      [
        "case",
        "s"
      ],
      [
        "1000000",
        "0"
      ],
      [
        "1000000",
        "00"
      ],
      [
        "Closure",
        "s"
      ],
      [
        "MULTIPL",
        "E"
      ],
      [
        "MULTIPL",
        "Y"
      ],
      [
        "candidate",
        "s"
      ],
      [
        "exercise",
        "d"
      ],
      [
        "exercise",
        "s"
      ],
      [
        "AN",
        "D"
      ],
      [
        "Be",
        "fore"
      ],
      [
        "Bel",
        "ow"
      ],
      [
        "Ch",
        "eck"
      ],
      [
        "Di",
        "rect"
      ],
      [
        "Do",
        "ubled"
      ],
      [
        "Diff",
        "erent"
      ],
      [
        "Dou",
        "bl"
      ],
      [
        "Ear",
        "ly"
      ],
      [
        "Fr",
        "iday"
      ],
      [
        "Flo",
        "atVector"
      ],
      [
        "Goo",
        "d"
      ],
      [
        "Init",
        "ial"
      ],
      [
        "Ins",
        "ide"
      ],
      [
        "JU",
        "MP"
      ],
      [
        "Ma",
        "ke"
      ],
      [
        "Mon",
        "day"
      ],
      [
        "NO",
        "T"
      ],
      [
        "Or",
        "iginal"
      ],
      [
        "Sa",
        "turday"
      ],
      [
        "Sc",
        "ript"
      ],
      [
        "St",
        "ress"
      ],
      [
        "Sund",
        "ay"
      ],
      [
        "Stan",
        "dard"
      ],
      [
        "Some",
        "thing"
      ],
      [
        "Tr",
        "ue"
      ],
      [
        "Tue",
        "sday"
      ],
      [
        "Un",
        "know"
      ],
      [
        "Us",
        "ing"
      ],
      [
        "Ver",
        "ify"
      ],
      [
        "Wh",
        "ile"
      ],
      [
        "Wor",
        "ld"
      ],
      [
        "Wed",
        "nesday"
      ],
      [
        "You",
        "r"
      ],
      [
        "ag",
        "ain"
      ],
      [
        "ava",
        "ilable"
      ],
      [
        "cen",
        "tral"
      ],
      [
        "cor",
        "rectly"
      ],
      [
        "cro",
        "ss"
      ],
      [
        "fif",
        "teen"
      ],
      [
        "gen",
        "erate"
      ],
      [
        "gith",
        "ub"
      ],
      [
        "heav",
        "y"
      ],
      [
        "imp",
        "orts"
      ],
      [
        "mo",
        "re"
      ],
      [
        "nSta",
        "tus"
      ],
      [
        "opera",
        "tion"
      ],
      [
        "sol",
        "ve"
      ],
      [
        "slo",
        "wer"
      ],
      [
        "soo",
        "n"
      ],
      [
        "inste",
        "ad"
      ],
      [
        "vario",
        "us"
      ],
      [
        "intern",
        "al"
      ],
      [
        "reco",
        "gnition"
      ],
      [
        "repos",
        "itor"
      ],
      [
        "rever",
        "se"
      ],
      [
        "sequ",
        "ence"
      ],
      [
        "superinstru",
        "ctions"
      ],
      [
        "teste",
        "d"
      ],
      [
        "fold",
        "ing"
      ],
      [
        "uniti",
        "es"
      ],
      [
        "thro",
        "ugh"
      ],
      [
        "topi",
        "c"
      ],
      [
        "libra",
        "ry"
      ],
      [
        "1415",
        "9"
      ],
      [
        "opport",
        "unities"
      ],
      [
        "Excel",
        "lent"
      ],
      [
        "implemen",
        "tation"
      ],
      [
        "manual",
        "ly"
      ],
      [
        "Doubl",
        "ing"
      ],
      [
        "Unknow",
        "n"
      ],
      [
        "repositor",
        "ies"
      ]
    ]
  }
}