{
  "version": "1.0",
  "truncation": null,
  "padding": null,
  "added_tokens": [
    {
      "id": 0,
      "content": "<pad>",
      "single_word": false,
      "lstrip": false,
      "rstrip": false,
      "normalized": false,
      "special": true
    },
    {
      "id": 1,
      "content": "<unk>",
      "single_word": false,
      "lstrip": false,
      "rstrip": false,
      "normalized": false,
      "special": true
    },
    {
      "id": 2,
      "content": "<sos>",
      "single_word": false,
      "lstrip": false,
      "rstrip": false,
      "normalized": false,
      "special": true
    },
    {
      "id": 3,
      "content": "<eos>",
      "single_word": false,
      "lstrip": false,
      "rstrip": false,
      "normalized": false,
      "special": true
    },
    {
      "id": 4,
      "content": "<cursor>",
      "single_word": false,
      "lstrip": false,
      "rstrip": false,
      "normalized": false,
      "special": true
    },
    {
      "id": 577,
      "content": "const",
      "single_word": false,
      "lstrip": false,
      "rstrip": false,
      "normalized": true,
      "special": false
    },
    {
      "id": 578,
      "content": "for",
      "single_word": false,
      "lstrip": false,
      "rstrip": false,
      "normalized": true,
      "special": false
    },
    {
      "id": 579,
      "content": "class",
      "single_word": false,
      "lstrip": false,
      "rstrip": false,
      "normalized": true,
      "special": false
    },
    {
      "id": 580,
      "content": "self",
      "single_word": false,
      "lstrip": false,
      "rstrip": false,
      "normalized": true,
      "special": false
    },
    {
      "id": 581,
      "content": "super",
      "single_word": false,
      "lstrip": false,
      "rstrip": false,
      "normalized": true,
      "special": false
    },
    {
      "id": 582,
      "content": "import",
      "single_word": false,
      "lstrip": false,
      "rstrip": false,
      "normalized": true,
      "special": false
    },
    {
      "id": 583,
      "content": "pub",
      "single_word": false,
      "lstrip": false,
      "rstrip": false,
      "normalized": true,
      "special": false
    },
    {
      "id": 584,
      "content": "let",
      "single_word": false,
      "lstrip": false,
      "rstrip": false,
      "normalized": true,
      "special": false
    },
    {
      "id": 585,
      "content": "each",
      "single_word": false,
      "lstrip": false,
      "rstrip": false,
      "normalized": true,
      "special": false
    },
    {
      "id": 586,
      "content": "switch",
      "single_word": false,
      "lstrip": false,
      "rstrip": false,
      "normalized": true,
      "special": false
    },
    {
      "id": 587,
      "content": "case",
      "single_word": false,
      "lstrip": false,
      "rstrip": false,
      "normalized": true,
      "special": false
    },
    {
      "id": 588,
      "content": "type_of",
      "single_word": false,
      "lstrip": false,
      "rstrip": false,
      "normalized": true,
      "special": false
    },
    {
      "id": 589,
      "content": "is_nil",
      "single_word": false,
      "lstrip": false,
      "rstrip": false,
      "normalized": true,
      "special": false
    },
    {
      "id": 590,
      "content": "is_string",
      "single_word": false,
      "lstrip": false,
      "rstrip": false,
      "normalized": true,
      "special": false
    },
    {
      "id": 591,
      "content": "is_number",
      "single_word": false,
      "lstrip": false,
      "rstrip": false,
      "normalized": true,
      "special": false
    },
    {
      "id": 592,
      "content": "is_bool",
      "single_word": false,
      "lstrip": false,
      "rstrip": false,
      "normalized": true,
      "special": false
    },
    {
      "id": 593,
      "content": "is_int",
      "single_word": false,
      "lstrip": false,
      "rstrip": false,
      "normalized": true,
      "special": false
    },
    {
      "id": 594,
      "content": "printf",
      "single_word": false,
      "lstrip": false,
      "rstrip": false,
      "normalized": true,
      "special": false
    },
    {
      "id": 595,
      "content": "input",
      "single_word": false,
      "lstrip": false,
      "rstrip": false,
      "normalized": true,
      "special": false
    },
    {
      "id": 596,
      "content": "now_ms",
      "single_word": false,
      "lstrip": false,
      "rstrip": false,
      "normalized": true,
      "special": false
    },
    {
      "id": 597,
      "content": "format",
      "single_word": false,
      "lstrip": false,
      "rstrip": false,
      "normalized": true,
      "special": false
    },
    {
      "id": 598,
      "content": "exit",
      "single_word": false,
      "lstrip": false,
      "rstrip": false,
      "normalized": true,
      "special": false
    },
    {
      "id": 599,
      "content": "assert",
      "single_word": false,
      "lstrip": false,
      "rstrip": false,
      "normalized": true,
      "special": false
    },
    {
      "id": 600,
      "content": "push",
      "single_word": false,
      "lstrip": false,
      "rstrip": false,
      "normalized": true,
      "special": false
    },
    {
      "id": 601,
      "content": "pop",
      "single_word": false,
      "lstrip": false,
      "rstrip": false,
      "normalized": true,
      "special": false
    },
    {
      "id": 602,
      "content": "sort",
      "single_word": false,
      "lstrip": false,
      "rstrip": false,
      "normalized": true,
      "special": false
    },
    {
      "id": 603,
      "content": "reverse",
      "single_word": false,
      "lstrip": false,
      "rstrip": false,
      "normalized": true,
      "special": false
    },
    {
      "id": 604,
      "content": "contains",
      "single_word": false,
      "lstrip": false,
      "rstrip": false,
      "normalized": true,
      "special": false
    }
  ],
  "normalizer": null,
  "pre_tokenizer": {
    "type": "Sequence",
    "pretokenizers": [
      {
        "type": "Whitespace"
      },
      {
        "type": "Punctuation",
        "behavior": "Isolated"
      }
    ]
  },
  "post_processor": null,
  "decoder": null,
  "model": {
    "type": "BPE",
    "dropout": null,
    "unk_token": "<unk>",
    "continuing_subword_prefix": null,
    "end_of_word_suffix": null,
    "fuse_unk": false,
    "byte_fallback": false,
    "ignore_merges": false,
    "vocab": {
      "<pad>": 0,
      "<unk>": 1,
      "<sos>": 2,
      "<eos>": 3,
      "<cursor>": 4,
      "!": 5,
      "\"": 6,
      "(": 7,
      ")": 8,
      "*": 9,
      "+": 10,
      ",": 11,
      "-": 12,
      ".": 13,
      "/": 14,
      "0": 15,
      "1": 16,
      "2": 17,
      "3": 18,
      "4": 19,
      "5": 20,
      "6": 21,
      "7": 22,
      "8": 23,
      "9": 24,
      ";": 25,
      "<": 26,
      "=": 27,
      ">": 28,
      "_": 29,
      "a": 30,
      "b": 31,
      "c": 32,
      "d": 33,
      "e": 34,
      "f": 35,
      "g": 36,
      "h": 37,
      "i": 38,
      "j": 39,
      "k": 40,
      "l": 41,
      "m": 42,
      "n": 43,
      "o": 44,
      "p": 45,
      "q": 46,
      "r": 47,
      "s": 48,
      "t": 49,
      "u": 50,
      "v": 51,
      "w": 52,
      "x": 53,
      "y": 54,
      "z": 55,
      "{": 56,
      "}": 57,
      "va": 58,
      "in": 59,
      "var": 60,
      "pr": 61,
      "int": 62,
      "print": 63,
      "if": 64,
      "ln": 65,
      "println": 66,
      "re": 67,
      "il": 68,
      "se": 69,
      "is": 70,
      "lse": 71,
      "tr": 72,
      "nil": 73,
      "it": 74,
      "le": 75,
      "de": 76,
      "ue": 77,
      "fa": 78,
      "true": 79,
      "false": 80,
      "no": 81,
      "su": 82,
      "ta": 83,
      "ac": 84,
      "val": 85,
      "ra": 86,
      "en": 87,
      "te": 88,
      "ma": 89,
      "ol": 90,
      "fo": 91,
      "or": 92,
      "co": 93,
      "el": 94,
      "else": 95,
      "th": 96,
      "un": 97,
      "pe": 98,
      "ity": 99,
      "me": 100,
      "not": 101,
      "an": 102,
      "of": 103,
      "hil": 104,
      "whil": 105,
      "while": 106,
      "str": 107,
      "ge": 108,
      "ing": 109,
      "ble": 110,
      "reac": 111,
      "foreac": 112,
      "foreach": 113,
      "inde": 114,
      "fi": 115,
      "max": 116,
      "min": 117,
      "len": 118,
      "do": 119,
      "now": 120,
      "sta": 121,
      "os": 122,
      "ct": 123,
      "es": 124,
      "ap": 125,
      "pro": 126,
      "id": 127,
      "ei": 128,
      "gh": 129,
      "eigh": 130,
      "eight": 131,
      "tu": 132,
      "vel": 133,
      "pos": 134,
      "ty": 135,
      "type": 136,
      "rt": 137,
      "ok": 138,
      "age": 139,
      "vol": 140,
      "ke": 141,
      "sum": 142,
      "rea": 143,
      "end": 144,
      "start": 145,
      "ns": 146,
      "bo": 147,
      "bool": 148,
      "ti": 149,
      "ve": 150,
      "ab": 151,
      "ang": 152,
      "ran": 153,
      "city": 154,
      "lt": 155,
      "resu": 156,
      "result": 157,
      "ces": 158,
      "cess": 159,
      "ms": 160,
      "ne": 161,
      "done": 162,
      "ccess": 163,
      "success": 164,
      "rema": 165,
      "inder": 166,
      "remainder": 167,
      "cap": 168,
      "acity": 169,
      "capacity": 170,
      "du": 171,
      "produ": 172,
      "product": 173,
      "set": 174,
      "ning": 175,
      "iz": 176,
      "ize": 177,
      "em": 178,
      "item": 179,
      "ste": 180,
      "step": 181,
      "to": 182,
      "wid": 183,
      "width": 184,
      "dif": 185,
      "diff": 186,
      "fset": 187,
      "offset": 188,
      "coun": 189,
      "count": 190,
      "size": 191,
      "height": 192,
      "tal": 193,
      "total": 194,
      "sco": 195,
      "score": 196,
      "level": 197,
      "im": 198,
      "lim": 199,
      "limit": 200,
      "10": 201,
      "index": 202,
      "and": 203,
      "rank": 204,
      "pth": 205,
      "depth": 206,
      "fix": 207,
      "ut": 208,
      "lo": 209,
      "pi": 210,
      "und": 211,
      "wor": 212,
      "ame": 213,
      "name": 214,
      "key": 215,
      "uble": 216,
      "double": 217,
      "con": 218,
      "ba": 219,
      "di": 220,
      "as": 221,
      "abs": 222,
      "ume": 223,
      "volume": 224,
      "gn": 225,
      "ude": 226,
      "itude": 227,
      "magn": 228,
      "magnitude": 229,
      "area": 230,
      "dens": 231,
      "density": 232,
      "la": 233,
      "us": 234,
      "radi": 235,
      "radius": 236,
      "fact": 237,
      "factor": 238,
      "angle": 239,
      "weight": 240,
      "rate": 241,
      "hol": 242,
      "shol": 243,
      "reshol": 244,
      "threshol": 245,
      "threshold": 246,
      "acc": 247,
      "dis": 248,
      "dist": 249,
      "valid": 250,
      "fre": 251,
      "freq": 252,
      "tage": 253,
      "voltage": 254,
      "cen": 255,
      "rcen": 256,
      "percen": 257,
      "percent": 258,
      "mpe": 259,
      "ratu": 260,
      "tempe": 261,
      "rature": 262,
      "temperature": 263,
      "accel": 264,
      "appro": 265,
      "approx": 266,
      "av": 267,
      "avg": 268,
      "string": 269,
      "pres": 270,
      "sure": 271,
      "pressure": 272,
      "ocity": 273,
      "velocity": 274,
      "found": 275,
      "fla": 276,
      "flag": 277,
      "rati": 278,
      "ratio": 279,
      "ec": 280,
      "able": 281,
      "enable": 282,
      "enabled": 283,
      "rme": 284,
      "firme": 285,
      "confirme": 286,
      "confirmed": 287,
      "ch": 288,
      "chec": 289,
      "run": 290,
      "ive": 291,
      "itive": 292,
      "positive": 293,
      "ev": 294,
      "even": 295,
      "acti": 296,
      "active": 297,
      "dy": 298,
      "ready": 299,
      "ked": 300,
      "checked": 301,
      "running": 302,
      "ible": 303,
      "vis": 304,
      "visible": 305,
      "has": 306,
      "fun": 307,
      "rn": 308,
      "retu": 309,
      "return": 310,
      "ro": 311,
      "ata": 312,
      "ate": 313,
      "13": 314,
      "15": 315,
      "lin": 316,
      "line": 317,
      "efix": 318,
      "prefix": 319,
      "14": 320,
      "18": 321,
      "pa": 322,
      "out": 323,
      "put": 324,
      "output": 325,
      "mean": 326,
      "12": 327,
      "msg": 328,
      "ffix": 329,
      "suffix": 330,
      "mu": 331,
      "16": 332,
      "17": 333,
      "word": 334,
      "lang": 335,
      "uage": 336,
      "language": 337,
      "19": 338,
      "tag": 339,
      "11": 340,
      "tit": 341,
      "title": 342,
      "value": 343,
      "path": 344,
      "statu": 345,
      "status": 346,
      "tok": 347,
      "token": 348,
      "cate": 349,
      "gor": 350,
      "categor": 351,
      "category": 352,
      "sc": 353,
      "desc": 354,
      "lab": 355,
      "label": 356,
      "et": 357,
      "gre": 358,
      "eting": 359,
      "greeting": 360,
      "que": 361,
      "ry": 362,
      "query": 363,
      "er": 364,
      "node": 365,
      "info": 366,
      "hel": 367,
      "hello": 368,
      "bu": 369,
      "code": 370,
      "af": 371,
      "leaf": 372,
      "ld": 373,
      "world": 374,
      "xt": 375,
      "text": 376,
      "mufi": 377,
      "baz": 378,
      "foo": 379,
      "qu": 380,
      "st": 381,
      "test": 382,
      "qux": 383,
      "ot": 384,
      "root": 385,
      "ror": 386,
      "error": 387,
      "data": 388,
      "bar": 389,
      "ar": 390,
      "war": 391,
      "warning": 392,
      "debu": 393,
      "debug": 394,
      "62": 395,
      "78": 396,
      "58": 397,
      "40": 398,
      "38": 399,
      "74": 400,
      "63": 401,
      "25": 402,
      "71": 403,
      "54": 404,
      "34": 405,
      "22": 406,
      "31": 407,
      "91": 408,
      "48": 409,
      "56": 410,
      "83": 411,
      "65": 412,
      "33": 413,
      "80": 414,
      "47": 415,
      "46": 416,
      "90": 417,
      "70": 418,
      "21": 419,
      "44": 420,
      "92": 421,
      "86": 422,
      "69": 423,
      "23": 424,
      "52": 425,
      "84": 426,
      "66": 427,
      "96": 428,
      "64": 429,
      "87": 430,
      "99": 431,
      "37": 432,
      "88": 433,
      "59": 434,
      "49": 435,
      "94": 436,
      "26": 437,
      "36": 438,
      "32": 439,
      "76": 440,
      "55": 441,
      "72": 442,
      "97": 443,
      "20": 444,
      "89": 445,
      "29": 446,
      "85": 447,
      "50": 448,
      "68": 449,
      "60": 450,
      "73": 451,
      "79": 452,
      "43": 453,
      "75": 454,
      "45": 455,
      "53": 456,
      "95": 457,
      "41": 458,
      "51": 459,
      "30": 460,
      "82": 461,
      "81": 462,
      "28": 463,
      "42": 464,
      "39": 465,
      "93": 466,
      "98": 467,
      "24": 468,
      "77": 469,
      "27": 470,
      "67": 471,
      "61": 472,
      "35": 473,
      "57": 474,
      "log": 475,
      "ex": 476,
      "100": 477,
      "atan": 478,
      "ce": 479,
      "qrt": 480,
      "sqrt": 481,
      "ceil": 482,
      "round": 483,
      "sin": 484,
      "flo": 485,
      "floor": 486,
      "acos": 487,
      "minl": 488,
      "cos": 489,
      "log2": 490,
      "ow": 491,
      "pow": 492,
      "exp": 493,
      "log10": 494,
      "tan": 495,
      "maxl": 496,
      "asin": 497,
      "rand": 498,
      "tin": 499,
      "contin": 500,
      "continue": 501,
      "brea": 502,
      "break": 503,
      "mp": 504,
      "ly": 505,
      "ply": 506,
      "ute": 507,
      "late": 508,
      "btr": 509,
      "subtr": 510,
      "act": 511,
      "subtract": 512,
      "comp": 513,
      "get": 514,
      "compute": 515,
      "rm": 516,
      "sfo": 517,
      "tran": 518,
      "sform": 519,
      "transform": 520,
      "check": 521,
      "apply": 522,
      "process": 523,
      "fro": 524,
      "from": 525,
      "cla": 526,
      "clamp": 527,
      "lti": 528,
      "ild": 529,
      "validate": 530,
      "multi": 531,
      "build": 532,
      "multiply": 533,
      "ad": 534,
      "mpa": 535,
      "compa": 536,
      "add": 537,
      "compare": 538,
      "map": 539,
      "range": 540,
      "vert": 541,
      "convert": 542,
      "ide": 543,
      "pol": 544,
      "vide": 545,
      "inter": 546,
      "divide": 547,
      "polate": 548,
      "interpolate": 549,
      "fin": 550,
      "find": 551,
      "lize": 552,
      "rma": 553,
      "norma": 554,
      "normalize": 555,
      "al": 556,
      "cu": 557,
      "cal": 558,
      "ecute": 559,
      "execute": 560,
      "culate": 561,
      "calculate": 562,
      "date": 563,
      "pdate": 564,
      "update": 565,
      "umu": 566,
      "accumu": 567,
      "accumulate": 568,
      "val2": 569,
      "ok2": 570,
      "volume4": 571,
      "angle3": 572,
      "threshold2": 573,
      "velocity2": 574,
      "confirmed2": 575,
      "even2": 576
    },
    "merges": [
      [
        "v",
        "a"
      ],
      [
        "i",
        "n"
      ],
      [
        "va",
        "r"
      ],
      [
        "p",
        "r"
      ],
      [
        "in",
        "t"
      ],
      [
        "pr",
        "int"
      ],
      [
        "i",
        "f"
      ],
      [
        "l",
        "n"
      ],
      [
        "print",
        "ln"
      ],
      [
        "r",
        "e"
      ],
      [
        "i",
        "l"
      ],
      [
        "s",
        "e"
      ],
      [
        "i",
        "s"
      ],
      [
        "l",
        "se"
      ],
      [
        "t",
        "r"
      ],
      [
        "n",
        "il"
      ],
      [
        "i",
        "t"
      ],
      [
        "l",
        "e"
      ],
      [
        "d",
        "e"
      ],
      [
        "u",
        "e"
      ],
      [
        "f",
        "a"
      ],
      [
        "tr",
        "ue"
      ],
      [
        "fa",
        "lse"
      ],
      [
        "n",
        "o"
      ],
      [
        "s",
        "u"
      ],
      [
        "t",
        "a"
      ],
      [
        "a",
        "c"
      ],
      [
        "va",
        "l"
      ],
      [
        "r",
        "a"
      ],
      [
        "e",
        "n"
      ],
      [
        "t",
        "e"
      ],
      [
        "m",
        "a"
      ],
      [
        "o",
        "l"
      ],
      [
        "f",
        "o"
      ],
      [
        "o",
        "r"
      ],
      [
        "c",
        "o"
      ],
      [
        "e",
        "l"
      ],
      [
        "e",
        "lse"
      ],
      [
        "t",
        "h"
      ],
      [
        "u",
        "n"
      ],
      [
        "p",
        "e"
      ],
      [
        "it",
        "y"
      ],
      [
        "m",
        "e"
      ],
      [
        "no",
        "t"
      ],
      [
        "a",
        "n"
      ],
      [
        "o",
        "f"
      ],
      [
        "h",
        "il"
      ],
      [
        "w",
        "hil"
      ],
      [
        "whil",
        "e"
      ],
      [
        "s",
        "tr"
      ],
      [
        "g",
        "e"
      ],
      [
        "in",
        "g"
      ],
      [
        "b",
        "le"
      ],
      [
        "re",
        "ac"
      ],
      [
        "fo",
        "reac"
      ],
      [
        "foreac",
        "h"
      ],
      [
        "in",
        "de"
      ],
      [
        "f",
        "i"
      ],
      [
        "ma",
        "x"
      ],
      [
        "m",
        "in"
      ],
      [
        "le",
        "n"
      ],
      [
        "d",
        "o"
      ],
      [
        "no",
        "w"
      ],
      [
        "s",
        "ta"
      ],
      [
        "o",
        "s"
      ],
      [
        "c",
        "t"
      ],
      [
        "e",
        "s"
      ],
      [
        "a",
        "p"
      ],
      [
        "pr",
        "o"
      ],
      [
        "i",
        "d"
      ],
      [
        "e",
        "i"
      ],
      [
        "g",
        "h"
      ],
      [
        "ei",
        "gh"
      ],
      [
        "eigh",
        "t"
      ],
      [
        "t",
        "u"
      ],
      [
        "v",
        "el"
      ],
      [
        "p",
        "os"
      ],
      [
        "t",
        "y"
      ],
      [
        "ty",
        "pe"
      ],
      [
        "r",
        "t"
      ],
      [
        "o",
        "k"
      ],
      [
        "a",
        "ge"
      ],
      [
        "v",
        "ol"
      ],
      [
        "k",
        "e"
      ],
      [
        "su",
        "m"
      ],
      [
        "re",
        "a"
      ],
      [
        "en",
        "d"
      ],
      [
        "sta",
        "rt"
      ],
      [
        "n",
        "s"
      ],
      [
        "b",
        "o"
      ],
      [
        "bo",
        "ol"
      ],
      [
        "t",
        "i"
      ],
      [
        "v",
        "e"
      ],
      [
        "a",
        "b"
      ],
      [
        "an",
        "g"
      ],
      [
        "ra",
        "n"
      ],
      [
        "c",
        "ity"
      ],
      [
        "l",
        "t"
      ],
      [
        "re",
        "su"
      ],
      [
        "resu",
        "lt"
      ],
      [
        "c",
        "es"
      ],
      [
        "ces",
        "s"
      ],
      [
        "m",
        "s"
      ],
      [
        "n",
        "e"
      ],
      [
        "do",
        "ne"
      ],
      [
        "c",
        "cess"
      ],
      [
        "su",
        "ccess"
      ],
      [
        "re",
        "ma"
      ],
      [
        "inde",
        "r"
      ],
      [
        "rema",
        "inder"
      ],
      [
        "c",
        "ap"
      ],
      [
        "ac",
        "ity"
      ],
      [
        "cap",
        "acity"
      ],
      [
        "d",
        "u"
      ],
      [
        "pro",
        "du"
      ],
      [
        "produ",
        "ct"
      ],
      [
        "se",
        "t"
      ],
      [
        "n",
        "ing"
      ],
      [
        "i",
        "z"
      ],
      [
        "iz",
        "e"
      ],
      [
        "e",
        "m"
      ],
      [
        "it",
        "em"
      ],
      [
        "s",
        "te"
      ],
      [
        "ste",
        "p"
      ],
      [
        "t",
        "o"
      ],
      [
        "w",
        "id"
      ],
      [
        "wid",
        "th"
      ],
      [
        "d",
        "if"
      ],
      [
        "dif",
        "f"
      ],
      [
        "f",
        "set"
      ],
      [
        "of",
        "fset"
      ],
      [
        "co",
        "un"
      ],
      [
        "coun",
        "t"
      ],
      [
        "s",
        "ize"
      ],
      [
        "h",
        "eight"
      ],
      [
        "ta",
        "l"
      ],
      [
        "to",
        "tal"
      ],
      [
        "s",
        "co"
      ],
      [
        "sco",
        "re"
      ],
      [
        "le",
        "vel"
      ],
      [
        "i",
        "m"
      ],
      [
        "l",
        "im"
      ],
      [
        "lim",
        "it"
      ],
      [
        "1",
        "0"
      ],
      [
        "inde",
        "x"
      ],
      [
        "an",
        "d"
      ],
      [
        "ran",
        "k"
      ],
      [
        "p",
        "th"
      ],
      [
        "de",
        "pth"
      ],
      [
        "fi",
        "x"
      ],
      [
        "u",
        "t"
      ],
      [
        "l",
        "o"
      ],
      [
        "p",
        "i"
      ],
      [
        "un",
        "d"
      ],
      [
        "w",
        "or"
      ],
      [
        "a",
        "me"
      ],
      [
        "n",
        "ame"
      ],
      [
        "ke",
        "y"
      ],
      [
        "u",
        "ble"
      ],
      [
        "do",
        "uble"
      ],
      [
        "co",
        "n"
      ],
      [
        "b",
        "a"
      ],
      [
        "d",
        "i"
      ],
      [
        "a",
        "s"
      ],
      [
        "ab",
        "s"
      ],
      [
        "u",
        "me"
      ],
      [
        "vol",
        "ume"
      ],
      [
        "g",
        "n"
      ],
      [
        "u",
        "de"
      ],
      [
        "it",
        "ude"
      ],
      [
        "ma",
        "gn"
      ],
      [
        "magn",
        "itude"
      ],
      [
        "a",
        "rea"
      ],
      [
        "de",
        "ns"
      ],
      [
        "dens",
        "ity"
      ],
      [
        "l",
        "a"
      ],
      [
        "u",
        "s"
      ],
      [
        "ra",
        "di"
      ],
      [
        "radi",
        "us"
      ],
      [
        "fa",
        "ct"
      ],
      [
        "fact",
        "or"
      ],
      [
        "ang",
        "le"
      ],
      [
        "w",
        "eight"
      ],
      [
        "ra",
        "te"
      ],
      [
        "h",
        "ol"
      ],
      [
        "s",
        "hol"
      ],
      [
        "re",
        "shol"
      ],
      [
        "th",
        "reshol"
      ],
      [
        "threshol",
        "d"
      ],
      [
        "ac",
        "c"
      ],
      [
        "d",
        "is"
      ],
      [
        "dis",
        "t"
      ],
      [
        "val",
        "id"
      ],
      [
        "f",
        "re"
      ],
      [
        "fre",
        "q"
      ],
      [
        "ta",
        "ge"
      ],
      [
        "vol",
        "tage"
      ],
      [
        "c",
        "en"
      ],
      [
        "r",
        "cen"
      ],
      [
        "pe",
        "rcen"
      ],
      [
        "percen",
        "t"
      ],
      [
        "m",
        "pe"
      ],
      [
        "ra",
        "tu"
      ],
      [
        "te",
        "mpe"
      ],
      [
        "ratu",
        "re"
      ],
      [
        "tempe",
        "rature"
      ],
      [
        "acc",
        "el"
      ],
      [
        "ap",
        "pro"
      ],
      [
        "appro",
        "x"
      ],
      [
        "a",
        "v"
      ],
      [
        "av",
        "g"
      ],
      [
        "str",
        "ing"
      ],
      [
        "pr",
        "es"
      ],
      [
        "su",
        "re"
      ],
      [
        "pres",
        "sure"
      ],
      [
        "o",
        "city"
      ],
      [
        "vel",
        "ocity"
      ],
      [
        "fo",
        "und"
      ],
      [
        "f",
        "la"
      ],
      [
        "fla",
        "g"
      ],
      [
        "ra",
        "ti"
      ],
      [
        "rati",
        "o"
      ],
      [
        "e",
        "c"
      ],
      [
        "a",
        "ble"
      ],
      [
        "en",
        "able"
      ],
      [
        "enable",
        "d"
      ],
      [
        "r",
        "me"
      ],
      [
        "fi",
        "rme"
      ],
      [
        "con",
        "firme"
      ],
      [
        "confirme",
        "d"
      ],
      [
        "c",
        "h"
      ],
      [
        "ch",
        "ec"
      ],
      [
        "r",
        "un"
      ],
      [
        "i",
        "ve"
      ],
      [
        "it",
        "ive"
      ],
      [
        "pos",
        "itive"
      ],
      [
        "e",
        "v"
      ],
      [
        "ev",
        "en"
      ],
      [
        "ac",
        "ti"
      ],
      [
        "acti",
        "ve"
      ],
      [
        "d",
        "y"
      ],
      [
        "rea",
        "dy"
      ],
      [
        "ke",
        "d"
      ],
      [
        "chec",
        "ked"
      ],
      [
        "run",
        "ning"
      ],
      [
        "i",
        "ble"
      ],
      [
        "v",
        "is"
      ],
      [
        "vis",
        "ible"
      ],
      [
        "h",
        "as"
      ],
      [
        "f",
        "un"
      ],
      [
        "r",
        "n"
      ],
      [
        "re",
        "tu"
      ],
      [
        "retu",
        "rn"
      ],
      [
        "r",
        "o"
      ],
      [
        "a",
        "ta"
      ],
      [
        "a",
        "te"
      ],
      [
        "1",
        "3"
      ],
      [
        "1",
        "5"
      ],
      [
        "l",
        "in"
      ],
      [
        "lin",
        "e"
      ],
      [
        "e",
        "fix"
      ],
      [
        "pr",
        "efix"
      ],
      [
        "1",
        "4"
      ],
      [
        "1",
        "8"
      ],
      [
        "p",
        "a"
      ],
      [
        "o",
        "ut"
      ],
      [
        "p",
        "ut"
      ],
      [
        "out",
        "put"
      ],
      [
        "me",
        "an"
      ],
      [
        "1",
        "2"
      ],
      [
        "ms",
        "g"
      ],
      [
        "f",
        "fix"
      ],
      [
        "su",
        "ffix"
      ],
      [
        "m",
        "u"
      ],
      [
        "1",
        "6"
      ],
      [
        "1",
        "7"
      ],
      [
        "wor",
        "d"
      ],
      [
        "l",
        "ang"
      ],
      [
        "u",
        "age"
      ],
      [
        "lang",
        "uage"
      ],
      [
        "1",
        "9"
      ],
      [
        "ta",
        "g"
      ],
      [
        "1",
        "1"
      ],
      [
        "t",
        "it"
      ],
      [
        "tit",
        "le"
      ],
      [
        "val",
        "ue"
      ],
      [
        "pa",
        "th"
      ],
      [
        "sta",
        "tu"
      ],
      [
        "statu",
        "s"
      ],
      [
        "t",
        "ok"
      ],
      [
        "tok",
        "en"
      ],
      [
        "c",
        "ate"
      ],
      [
        "g",
        "or"
      ],
      [
        "cate",
        "gor"
      ],
      [
        "categor",
        "y"
      ],
      [
        "s",
        "c"
      ],
      [
        "de",
        "sc"
      ],
      [
        "l",
        "ab"
      ],
      [
        "lab",
        "el"
      ],
      [
        "e",
        "t"
      ],
      [
        "g",
        "re"
      ],
      [
        "et",
        "ing"
      ],
      [
        "gre",
        "eting"
      ],
      [
        "q",
        "ue"
      ],
      [
        "r",
        "y"
      ],
      [
        "que",
        "ry"
      ],
      [
        "e",
        "r"
      ],
      [
        "no",
        "de"
      ],
      [
        "in",
        "fo"
      ],
      [
        "h",
        "el"
      ],
      [
        "hel",
        "lo"
      ],
      [
        "b",
        "u"
      ],
      [
        "co",
        "de"
      ],
      [
        "a",
        "f"
      ],
      [
        "le",
        "af"
      ],
      [
        "l",
        "d"
      ],
      [
        "wor",
        "ld"
      ],
      [
        "x",
        "t"
      ],
      [
        "te",
        "xt"
      ],
      [
        "mu",
        "fi"
      ],
      [
        "ba",
        "z"
      ],
      [
        "fo",
        "o"
      ],
      [
        "q",
        "u"
      ],
      [
        "s",
        "t"
      ],
      [
        "te",
        "st"
      ],
      [
        "qu",
        "x"
      ],
      [
        "o",
        "t"
      ],
      [
        "ro",
        "ot"
      ],
      [
        "r",
        "or"
      ],
      [
        "er",
        "ror"
      ],
      [
        "d",
        "ata"
      ],
      [
        "ba",
        "r"
      ],
      [
        "a",
        "r"
      ],
      [
        "w",
        "ar"
      ],
      [
        "war",
        "ning"
      ],
      [
        "de",
        "bu"
      ],
      [
        "debu",
        "g"
      ],
      [
        "6",
        "2"
      ],
      [
        "7",
        "8"
      ],
      [
        "5",
        "8"
      ],
      [
        "4",
        "0"
      ],
      [
        "3",
        "8"
      ],
      [
        "7",
        "4"
      ],
      [
        "6",
        "3"
      ],
      [
        "2",
        "5"
      ],
      [
        "7",
        "1"
      ],
      [
        "5",
        "4"
      ],
      [
        "3",
        "4"
      ],
      [
        "2",
        "2"
      ],
      [
        "3",
        "1"
      ],
      [
        "9",
        "1"
      ],
      [
        "4",
        "8"
      ],
      [
        "5",
        "6"
      ],
      [
        "8",
        "3"
      ],
      [
        "6",
        "5"
      ],
      [
        "3",
        "3"
      ],
      [
        "8",
        "0"
      ],
      [
        "4",
        "7"
      ],
      [
        "4",
        "6"
      ],
      [
        "9",
        "0"
      ],
      [
        "7",
        "0"
      ],
      [
        "2",
        "1"
      ],
      [
        "4",
        "4"
      ],
      [
        "9",
        "2"
      ],
      [
        "8",
        "6"
      ],
      [
        "6",
        "9"
      ],
      [
        "2",
        "3"
      ],
      [
        "5",
        "2"
      ],
      [
        "8",
        "4"
      ],
      [
        "6",
        "6"
      ],
      [
        "9",
        "6"
      ],
      [
        "6",
        "4"
      ],
      [
        "8",
        "7"
      ],
      [
        "9",
        "9"
      ],
      [
        "3",
        "7"
      ],
      [
        "8",
        "8"
      ],
      [
        "5",
        "9"
      ],
      [
        "4",
        "9"
      ],
      [
        "9",
        "4"
      ],
      [
        "2",
        "6"
      ],
      [
        "3",
        "6"
      ],
      [
        "3",
        "2"
      ],
      [
        "7",
        "6"
      ],
      [
        "5",
        "5"
      ],
      [
        "7",
        "2"
      ],
      [
        "9",
        "7"
      ],
      [
        "2",
        "0"
      ],
      [
        "8",
        "9"
      ],
      [
        "2",
        "9"
      ],
      [
        "8",
        "5"
      ],
      [
        "5",
        "0"
      ],
      [
        "6",
        "8"
      ],
      [
        "6",
        "0"
      ],
      [
        "7",
        "3"
      ],
      [
        "7",
        "9"
      ],
      [
        "4",
        "3"
      ],
      [
        "7",
        "5"
      ],
      [
        "4",
        "5"
      ],
      [
        "5",
        "3"
      ],
      [
        "9",
        "5"
      ],
      [
        "4",
        "1"
      ],
      [
        "5",
        "1"
      ],
      [
        "3",
        "0"
      ],
      [
        "8",
        "2"
      ],
      [
        "8",
        "1"
      ],
      [
        "2",
        "8"
      ],
      [
        "4",
        "2"
      ],
      [
        "3",
        "9"
      ],
      [
        "9",
        "3"
      ],
      [
        "9",
        "8"
      ],
      [
        "2",
        "4"
      ],
      [
        "7",
        "7"
      ],
      [
        "2",
        "7"
      ],
      [
        "6",
        "7"
      ],
      [
        "6",
        "1"
      ],
      [
        "3",
        "5"
      ],
      [
        "5",
        "7"
      ],
      [
        "lo",
        "g"
      ],
      [
        "e",
        "x"
      ],
      [
        "10",
        "0"
      ],
      [
        "ata",
        "n"
      ],
      [
        "c",
        "e"
      ],
      [
        "q",
        "rt"
      ],
      [
        "s",
        "qrt"
      ],
      [
        "ce",
        "il"
      ],
      [
        "ro",
        "und"
      ],
      [
        "s",
        "in"
      ],
      [
        "f",
        "lo"
      ],
      [
        "flo",
        "or"
      ],
      [
        "ac",
        "os"
      ],
      [
        "min",
        "l"
      ],
      [
        "co",
        "s"
      ],
      [
        "log",
        "2"
      ],
      [
        "o",
        "w"
      ],
      [
        "p",
        "ow"
      ],
      [
        "ex",
        "p"
      ],
      [
        "log",
        "10"
      ],
      [
        "ta",
        "n"
      ],
      [
        "max",
        "l"
      ],
      [
        "as",
        "in"
      ],
      [
        "ran",
        "d"
      ],
      [
        "t",
        "in"
      ],
      [
        "con",
        "tin"
      ],
      [
        "contin",
        "ue"
      ],
      [
        "b",
        "rea"
      ],
      [
        "brea",
        "k"
      ],
      [
        "m",
        "p"
      ],
      [
        "l",
        "y"
      ],
      [
        "p",
        "ly"
      ],
      [
        "u",
        "te"
      ],
      [
        "la",
        "te"
      ],
      [
        "b",
        "tr"
      ],
      [
        "su",
        "btr"
      ],
      [
        "ac",
        "t"
      ],
      [
        "subtr",
        "act"
      ],
      [
        "co",
        "mp"
      ],
      [
        "ge",
        "t"
      ],
      [
        "comp",
        "ute"
      ],
      [
        "r",
        "m"
      ],
      [
        "s",
        "fo"
      ],
      [
        "tr",
        "an"
      ],
      [
        "sfo",
        "rm"
      ],
      [
        "tran",
        "sform"
      ],
      [
        "chec",
        "k"
      ],
      [
        "ap",
        "ply"
      ],
      [
        "pro",
        "cess"
      ],
      [
        "f",
        "ro"
      ],
      [
        "fro",
        "m"
      ],
      [
        "c",
        "la"
      ],
      [
        "cla",
        "mp"
      ],
      [
        "l",
        "ti"
      ],
      [
        "il",
        "d"
      ],
      [
        "valid",
        "ate"
      ],
      [
        "mu",
        "lti"
      ],
      [
        "bu",
        "ild"
      ],
      [
        "multi",
        "ply"
      ],
      [
        "a",
        "d"
      ],
      [
        "m",
        "pa"
      ],
      [
        "co",
        "mpa"
      ],
      [
        "ad",
        "d"
      ],
      [
        "compa",
        "re"
      ],
      [
        "ma",
        "p"
      ],
      [
        "ran",
        "ge"
      ],
      [
        "ve",
        "rt"
      ],
      [
        "con",
        "vert"
      ],
      [
        "i",
        "de"
      ],
      [
        "p",
        "ol"
      ],
      [
        "v",
        "ide"
      ],
      [
        "int",
        "er"
      ],
      [
        "di",
        "vide"
      ],
      [
        "pol",
        "ate"
      ],
      [
        "inter",
        "polate"
      ],
      [
        "f",
        "in"
      ],
      [
        "fin",
        "d"
      ],
      [
        "l",
        "ize"
      ],
      [
        "r",
        "ma"
      ],
      [
        "no",
        "rma"
      ],
      [
        "norma",
        "lize"
      ],
      [
        "a",
        "l"
      ],
      [
        "c",
        "u"
      ],
      [
        "c",
        "al"
      ],
      [
        "ec",
        "ute"
      ],
      [
        "ex",
        "ecute"
      ],
      [
        "cu",
        "late"
      ],
      [
        "cal",
        "culate"
      ],
      [
        "d",
        "ate"
      ],
      [
        "p",
        "date"
      ],
      [
        "u",
        "pdate"
      ],
      [
        "u",
        "mu"
      ],
      [
        "acc",
        "umu"
      ],
      [
        "accumu",
        "late"
      ],
      [
        "val",
        "2"
      ],
      [
        "ok",
        "2"
      ],
      [
        "volume",
        "4"
      ],
      [
        "angle",
        "3"
      ],
      [
        "threshold",
        "2"
      ],
      [
        "velocity",
        "2"
      ],
      [
        "confirmed",
        "2"
      ],
      [
        "even",
        "2"
      ]
    ]
  }
}